{
  "version": "1.0",
  "truncation": null,
  "padding": null,
  "added_tokens": [],
  "normalizer": null,
  "pre_tokenizer": {
    "type": "ByteLevel",
    "add_prefix_space": false,
    "trim_offsets": true,
    "use_regex": true
  },
  "post_processor": null,
  "decoder": {
    "type": "ByteLevel",
    "add_prefix_space": true,
    "trim_offsets": true,
    "use_regex": true
  },
  "model": {
    "type": "BPE",
    "dropout": null,
    "unk_token": null,
    "continuing_subword_prefix": null,
    "end_of_word_suffix": null,
    "fuse_unk": false,
    "byte_fallback": false,
    "ignore_merges": false,
    "vocab": {
      "!": 0,
      "\"": 1,
      "#": 2,
      "$": 3,
      "%": 4,
      "&": 5,
      "'": 6,
      "(": 7,
      ")": 8,
      "*": 9,
      "+": 10,
      ",": 11,
      "-": 12,
      ".": 13,
      "/": 14,
      "0": 15,
      "1": 16,
      "2": 17,
      "3": 18,
      "4": 19,
      "5": 20,
      "6": 21,
      "7": 22,
      "8": 23,
      "9": 24,
      ":": 25,
      ";": 26,
      "<": 27,
      "=": 28,
      ">": 29,
      "?": 30,
      "@": 31,
      "A": 32,
      "B": 33,
      "C": 34,
      "D": 35,
      "E": 36,
      "F": 37,
      "G": 38,
      "H": 39,
      "I": 40,
      "J": 41,
      "K": 42,
      "L": 43,
      "M": 44,
      "N": 45,
      "O": 46,
      "P": 47,
      "Q": 48,
      "R": 49,
      "S": 50,
      "T": 51,
      "U": 52,
      "V": 53,
      "W": 54,
      "X": 55,
      "Y": 56,
      "Z": 57,
      "[": 58,
      "\\": 59,
      "]": 60,
      "^": 61,
      "_": 62,
      "`": 63,
      "a": 64,
      "b": 65,
      "c": 66,
      "d": 67,
      "e": 68,
      "f": 69,
      "g": 70,
      "h": 71,
      "i": 72,
      "j": 73,
      "k": 74,
      "l": 75,
      "m": 76,
      "n": 77,
      "o": 78,
      "p": 79,
      "q": 80,
      "r": 81,
      "s": 82,
      "t": 83,
      "u": 84,
      "v": 85,
      "w": 86,
      "x": 87,
      "y": 88,
      "z": 89,
      "{": 90,
      "|": 91,
      "}": 92,
      "~": 93,
      "¡": 94,
      "¢": 95,
      "£": 96,
      "¤": 97,
      "¥": 98,
      "¦": 99,
      "§": 100,
      "¨": 101,
      "©": 102,
      "ª": 103,
      "«": 104,
      "¬": 105,
      "®": 106,
      "¯": 107,
      "°": 108,
      "±": 109,
      "²": 110,
      "³": 111,
      "´": 112,
      "µ": 113,
      "¶": 114,
      "·": 115,
      "¸": 116,
      "¹": 117,
      "º": 118,
      "»": 119,
      "¼": 120,
      "½": 121,
      "¾": 122,
      "¿": 123,
      "À": 124,
      "Á": 125,
      "Â": 126,
      "Ã": 127,
      "Ä": 128,
      "Å": 129,
      "Æ": 130,
      "Ç": 131,
      "È": 132,
      "É": 133,
      "Ê": 134,
      "Ë": 135,
      "Ì": 136,
      "Í": 137,
      "Î": 138,
      "Ï": 139,
      "Ð": 140,
      "Ñ": 141,
      "Ò": 142,
      "Ó": 143,
      "Ô": 144,
      "Õ": 145,
      "Ö": 146,
      "×": 147,
      "Ø": 148,
      "Ù": 149,
      "Ú": 150,
      "Û": 151,
      "Ü": 152,
      "Ý": 153,
      "Þ": 154,
      "ß": 155,
      "à": 156,
      "á": 157,
      "â": 158,
      "ã": 159,
      "ä": 160,
      "å": 161,
      "æ": 162,
      "ç": 163,
      "è": 164,
      "é": 165,
      "ê": 166,
      "ë": 167,
      "ì": 168,
      "í": 169,
      "î": 170,
      "ï": 171,
      "ð": 172,
      "ñ": 173,
      "ò": 174,
      "ó": 175,
      "ô": 176,
      "õ": 177,
      "ö": 178,
      "÷": 179,
      "ø": 180,
      "ù": 181,
      "ú": 182,
      "û": 183,
      "ü": 184,
      "ý": 185,
      "þ": 186,
      "ÿ": 187,
      "Ā": 188,
      "ā": 189,
      "Ă": 190,
      "ă": 191,
      "Ą": 192,
      "ą": 193,
      "Ć": 194,
      "ć": 195,
      "Ĉ": 196,
      "ĉ": 197,
      "Ċ": 198,
      "ċ": 199,
      "Č": 200,
      "č": 201,
      "Ď": 202,
      "ď": 203,
      "Đ": 204,
      "đ": 205,
      "Ē": 206,
      "ē": 207,
      "Ĕ": 208,
      "ĕ": 209,
      "Ė": 210,
      "ė": 211,
      "Ę": 212,
      "ę": 213,
      "Ě": 214,
      "ě": 215,
      "Ĝ": 216,
      "ĝ": 217,
      "Ğ": 218,
      "ğ": 219,
      "Ġ": 220,
      "ġ": 221,
      "Ģ": 222,
      "ģ": 223,
      "Ĥ": 224,
      "ĥ": 225,
      "Ħ": 226,
      "ħ": 227,
      "Ĩ": 228,
      "ĩ": 229,
      "Ī": 230,
      "ī": 231,
      "Ĭ": 232,
      "ĭ": 233,
      "Į": 234,
      "į": 235,
      "İ": 236,
      "ı": 237,
      "Ĳ": 238,
      "ĳ": 239,
      "Ĵ": 240,
      "ĵ": 241,
      "Ķ": 242,
      "ķ": 243,
      "ĸ": 244,
      "Ĺ": 245,
      "ĺ": 246,
      "Ļ": 247,
      "ļ": 248,
      "Ľ": 249,
      "ľ": 250,
      "Ŀ": 251,
      "ŀ": 252,
      "Ł": 253,
      "ł": 254,
      "Ń": 255,
      "Ġt": 256,
      "he": 257,
      "Ġa": 258,
      "in": 259,
      "Ġw": 260,
      "Ġs": 261,
      "Ġthe": 262,
      "Ġo": 263,
      "re": 264,
      "nd": 265,
      "Ġh": 266,
      "ou": 267,
      "er": 268,
      "Ġb": 269,
      "Ġm": 270,
      "it": 271,
      "at": 272,
      "ed": 273,
      "Ġf": 274,
      "is": 275,
      "Ġand": 276,
      "Ġc": 277,
      "en": 278,
      "Ġto": 279,
      "Ġof": 280,
      "ing": 281,
      "on": 282,
      "Ġth": 283,
      "or": 284,
      "as": 285,
      "Ġd": 286,
      "Ġhe": 287,
      "ar": 288,
      "an": 289,
      "ll": 290,
      "Ġp": 291,
      "Ġl": 292,
      "es": 293,
      "Ġin": 294,
      "Ġn": 295,
      "Ġha": 296,
      "om": 297,
      "ĠI": 298,
      "Ġbe": 299,
      "Ġg": 300,
      "le": 301,
      "ot": 302,
      "ow": 303,
      "ut": 304,
      "ld": 305,
      "Ġwas": 306,
      "id": 307,
      "ic": 308,
      "Ġy": 309,
      "Ġe": 310,
      "ve": 311,
      "im": 312,
      "gh": 313,
      "se": 314,
      "ly": 315,
      "Ġthat": 316,
      "Ġwh": 317,
      "st": 318,
      "Ġit": 319,
      "Ġyou": 320,
      "ent": 321,
      "Ġon": 322,
      "ver": 323,
      "Ġu": 324,
      "Ġhis": 325,
      "ay": 326,
      "ith": 327,
      "ce": 328,
      "Ġas": 329,
      "Ġre": 330,
      "et": 331,
      "ir": 332,
      "Ġwith": 333,
      "Ġfor": 334,
      "Ġher": 335,
      "ad": 336,
      "ion": 337,
      "Ġhad": 338,
      "Ġwe": 339,
      "ght": 340,
      "al": 341,
      "ur": 342,
      "Ġst": 343,
      "Ġr": 344,
      "Ġnot": 345,
      "oo": 346,
      "Ġsa": 347,
      "ould": 348,
      "her": 349,
      "Ġan": 350,
      "ch": 351,
      "ĠT": 352,
      "Ġat": 353,
      "--": 354,
      "am": 355,
      "ke": 356,
      "ĠM": 357,
      "ter": 358,
      "Ġhim": 359,
      "if": 360,
      "'s": 361,
      "Ġme": 362,
      "ill": 363,
      "Ġshe": 364,
      "Ġse": 365,
      "Ġsh": 366,
      "ight": 367,
      "ct": 368,
      "ain": 369,
      "Ġ\"": 370,
      "Ġis": 371,
      "ĠH": 372,
      "Ġmy": 373,
      "ĠS": 374,
      "Ġso": 375,
      "red": 376,
      "Ġfr": 377,
      "ess": 378,
      "ĠA": 379,
      "Ġsu": 380,
      ".\"": 381,
      "ore": 382,
      "Ġsaid": 383,
      "all": 384,
      "Ġhave": 385,
      "ro": 386,
      "Ġk": 387,
      "ck": 388,
      "il": 389,
      "ome": 390,
      "ich": 391,
      "and": 392,
      "Ġbut": 393,
      "ard": 394,
      "Ġall": 395,
      "Ġde": 396,
      "Ġup": 397,
      "pe": 398,
      "Ġne": 399,
      "ĠB": 400,
      ",\"": 401,
      "ge": 402,
      "th": 403,
      "Ġby": 404,
      "Ġwhich": 405,
      "qu": 406,
      "ri": 407,
      "ĠThe": 408,
      "Ġwhe": 409,
      "ra": 410,
      "ul": 411,
      "Ġwere": 412,
      "Ġthey": 413,
      "Ġcon": 414,
      "Ġdo": 415,
      "ie": 416,
      "very": 417,
      "Ġfrom": 418,
      "lf": 419,
      "ĠC": 420,
      "ant": 421,
      "Ġthis": 422,
      "pp": 423,
      "ble": 424,
      "Ġman": 425,
      "ĠW": 426,
      "Ġno": 427,
      "Ġkn": 428,
      "est": 429,
      "Ġor": 430,
      "ust": 431,
      "Ġfe": 432,
      "ind": 433,
      "Ġli": 434,
      "res": 435,
      "Ġch": 436,
      "ood": 437,
      "ast": 438,
      "Ġwould": 439,
      "Ġv": 440,
      "ous": 441,
      "Ġex": 442,
      "us": 443,
      "un": 444,
      "Ġthem": 445,
      "Ġwho": 446,
      "out": 447,
      "art": 448,
      "our": 449,
      "Ġone": 450,
      "ong": 451,
      "em": 452,
      "Ġal": 453,
      "Ġint": 454,
      "ook": 455,
      "ough": 456,
      "ation": 457,
      "ound": 458,
      "Ġbeen": 459,
      "ers": 460,
      "Ġout": 461,
      "itt": 462,
      "ak": 463,
      "Ġab": 464,
      "la": 465,
      "ate": 466,
      "ist": 467,
      "os": 468,
      "Ġle": 469,
      "Ġtheir": 470,
      "Ġthere": 471,
      "self": 472,
      "one": 473,
      "'t": 474,
      "Ġwor": 475,
      "ĠD": 476,
      "nt": 477,
      "ap": 478,
      "own": 479,
      "ĠHe": 480,
      "Ġcom": 481,
      "Ġcould": 482,
      "Ġwhen": 483,
      "ĠL": 484,
      "Ġif": 485,
      "ig": 486,
      "um": 487,
      "ame": 488,
      "ry": 489,
      "ĠP": 490,
      "ven": 491,
      "ĠG": 492,
      "ol": 493,
      "ell": 494,
      "reat": 495,
      "ĠMr": 496,
      "Ġag": 497,
      "?\"": 498,
      "Ġgo": 499,
      "Ġmore": 500,
      "el": 501,
      "Ġare": 502,
      "Ġyour": 503,
      "Ġany": 504,
      "Ġj": 505,
      "ther": 506,
      "Ġvery": 507,
      "Ġfa": 508,
      "The": 509,
      "Ġwhat": 510,
      "Ġun": 511,
      "Ġwill": 512,
      "ĠE": 513,
      "ide": 514,
      "Ġqu": 515,
      "ake": 516,
      "ive": 517,
      "Ġaf": 518,
      "hed": 519,
      "ost": 520,
      "ort": 521,
      "Ġlook": 522,
      "ond": 523,
      "ure": 524,
      "Ġtim": 525,
      "Ġlike": 526,
      "ittle": 527,
      "Ġam": 528,
      "Ġknow": 529,
      "au": 530,
      "ep": 531,
      "Ġsp": 532,
      "Ġinto": 533,
      "Ġsome": 534,
      "ity": 535,
      "Ġthan": 536,
      "ose": 537,
      "ag": 538,
      "ĠF": 539,
      "Ġlittle": 540,
      "od": 541,
      "Ġbr": 542,
      "hing": 543,
      "ink": 544,
      "way": 545,
      "Ġ'": 546,
      "Ġcan": 547,
      "ance": 548,
      "Ġtr": 549,
      "ought": 550,
      "pt": 551,
      "urn": 552,
      "Ġar": 553,
      "ved": 554,
      "are": 555,
      "wn": 556,
      "Ġtoo": 557,
      "Ġpro": 558,
      "ite": 559,
      "ick": 560,
      "Ġdid": 561,
      "ather": 562,
      "Ġabout": 563,
      "Ġus": 564,
      "!\"": 565,
      "other": 566,
      "Ġsay": 567,
      "op": 568,
      "Ġen": 569,
      "able": 570,
      "ng": 571,
      "Ġnow": 572,
      "ice": 573,
      "ect": 574,
      "Ġother": 575,
      "ade": 576,
      "ass": 577,
      "Ġsee": 578,
      "Ġagain": 579,
      "Ġupon": 580,
      "ered": 581,
      "ud": 582,
      "ĠR": 583,
      "Ġtime": 584,
      "fore": 585,
      "ish": 586,
      "ack": 587,
      "ine": 588,
      "ence": 589,
      "ings": 590,
      "hat": 591,
      "Ġhand": 592,
      "cc": 593,
      "Ġshould": 594,
      "ĠN": 595,
      "ies": 596,
      "Ġtw": 597,
      "ĠBut": 598,
      "Ġdis": 599,
      "ĠJ": 600,
      "Ġover": 601,
      "Ġgr": 602,
      "nder": 603,
      "Ġim": 604,
      "Ġdown": 605,
      "ĠIt": 606,
      "ab": 607,
      "Ġpr": 608,
      "uch": 609,
      "Ġgood": 610,
      "ove": 611,
      "Ġcl": 612,
      "Ġthen": 613,
      "ving": 614,
      "ac": 615,
      "ĠO": 616,
      "ious": 617,
      "ress": 618,
      "Ġgreat": 619,
      "Ġro": 620,
      "ward": 621,
      "age": 622,
      "ord": 623,
      "ment": 624,
      "ness": 625,
      "Ġnever": 626,
      "Ġad": 627,
      "Ġday": 628,
      "ile": 629,
      "Ġbefore": 630,
      "Ġthink": 631,
      "ount": 632,
      "Ġpo": 633,
      "ally": 634,
      "ue": 635,
      "Ġonly": 636,
      "Ġown": 637,
      "Ġmust": 638,
      "Ġmuch": 639,
      "ert": 640,
      "ady": 641,
      "ĠAnd": 642,
      "Ġafter": 643,
      "ire": 644,
      "Ġmade": 645,
      "ked": 646,
      "ne": 647,
      "Ġour": 648,
      "You": 649,
      "Ġold": 650,
      "Ġhow": 651,
      "pl": 652,
      "Ġsuch": 653,
      "ang": 654,
      "ars": 655,
      "ull": 656,
      "ree": 657,
      "Ġoff": 658,
      "ful": 659,
      "Ġhas": 660,
      "Ġmight": 661,
      "Ġlong": 662,
      "Ġway": 663,
      "Ġper": 664,
      "Ġstr": 665,
      "led": 666,
      "ife": 667,
      "ied": 668,
      "ild": 669,
      "Ġthought": 670,
      "Ġcame": 671,
      "Ġpre": 672,
      "Ġthr": 673,
      "Ġsc": 674,
      "Ġcome": 675,
      "Ġey": 676,
      "Ġpart": 677,
      "Ġbet": 678,
      "Ġpe": 679,
      "Ġevery": 680,
      "Ġbl": 681,
      "ff": 682,
      "ere": 683,
      "per": 684,
      "Ġfl": 685,
      "Ġunder": 686,
      "Ġsm": 687,
      "Ġseem": 688,
      "ary": 689,
      "ves": 690,
      "ach": 691,
      "oy": 692,
      "orn": 693,
      "ty": 694,
      "Ġwell": 695,
      "Ġeven": 696,
      "Ġback": 697,
      "Ġhimself": 698,
      "ip": 699,
      "Ġrem": 700,
      "ĠShe": 701,
      "Ġfir": 702,
      "ions": 703,
      "Ġwhere": 704,
      "Ġtwo": 705,
      "ried": 706,
      "man": 707,
      "iss": 708,
      "Ġpl": 709,
      "ave": 710,
      "oll": 711,
      "Ġits": 712,
      "ated": 713,
      "we": 714,
      "Ġspe": 715,
      "ew": 716,
      "old": 717,
      "Ġbeg": 718,
      "anc": 719,
      "ath": 720,
      "Ġgl": 721,
      "ft": 722,
      "ily": 723,
      "ark": 724,
      "ise": 725,
      "Ġwent": 726,
      "Ġbec": 727,
      "ouse": 728,
      "Ġfirst": 729,
      "Ġpla": 730,
      "Ġbeing": 731,
      "Ġaway": 732,
      "Ġob": 733,
      "Ġdes": 734,
      "Ġmay": 735,
      "me": 736,
      "Ġturn": 737,
      "Ġyoung": 738,
      "Ġres": 739,
      "Ġye": 740,
      "Ġcont": 741,
      "int": 742,
      "Ġhead": 743,
      "Ġmake": 744,
      "Ġind": 745,
      "Ġke": 746,
      "Ġjust": 747,
      "omet": 748,
      "Ġeyes": 749,
      "Ġget": 750,
      "Ġpass": 751,
      "Ġcomp": 752,
      "Ġhere": 753,
      "hen": 754,
      "ened": 755,
      "ber": 756,
      "Ġlet": 757,
      "ock": 758,
      "Ġthese": 759,
      ",'": 760,
      "Ġlast": 761,
      "air": 762,
      "Ġthrough": 763,
      "Ġwithout": 764,
      "ign": 765,
      "alk": 766,
      "pect": 767,
      "Ġbel": 768,
      "Ġmen": 769,
      "igh": 770,
      "oss": 771,
      "less": 772,
      "Ġword": 773,
      "Ġatt": 774,
      "Ġwom": 775,
      "Ġop": 776,
      "ause": 777,
      "arm": 778,
      ".'": 779,
      "Ġthough": 780,
      "Ġimp": 781,
      "Ġtell": 782,
      "Ġlooked": 783,
      "Ġmost": 784,
      "Ġsomet": 785,
      "sw": 786,
      "Ġcall": 787,
      "Ġcons": 788,
      "oth": 789,
      "ian": 790,
      "Ġwat": 791,
      "ople": 792,
      "Ġever": 793,
      "It": 794,
      "Ġshall": 795,
      "Ġlife": 796,
      "iend": 797,
      "leas": 798,
      "Ġap": 799,
      "aking": 800,
      "Ġdon": 801,
      "Ġacc": 802,
      "Ġfound": 803,
      "Ġmind": 804,
      "Ġface": 805,
      "Ġnothing": 806,
      "ĠK": 807,
      "Ġret": 808,
      "iff": 809,
      "Ġfriend": 810,
      "Ġwant": 811,
      "Ġseemed": 812,
      "Ġfather": 813,
      "Ġsaw": 814,
      "Ġstill": 815,
      "ons": 816,
      "Ġsl": 817,
      "Ġthings": 818,
      "Ġhouse": 819,
      "ci": 820,
      "Ġpres": 821,
      "ared": 822,
      "hes": 823,
      "Ġ_": 824,
      "Ġwhile": 825,
      "ling": 826,
      "Ġthing": 827,
      "row": 828,
      "Ġput": 829,
      "thing": 830,
      "Ġent": 831,
      "get": 832,
      "ĠTh": 833,
      "les": 834,
      "ĠMrs": 835,
      "Ġthose": 836,
      "Ġte": 837,
      "ting": 838,
      "oment": 839,
      "Ġyet": 840,
      "iz": 841,
      "Ġmoment": 842,
      "Ġmany": 843,
      "Ġchild": 844,
      "ted": 845,
      "Ġpeople": 846,
      "Ġnight": 847,
      "ways": 848,
      "Ġtake": 849,
      "Ġcar": 850,
      "Ġfeel": 851,
      "Ġend": 852,
      "Ġwr": 853,
      "ody": 854,
      "ced": 855,
      "Ġmar": 856,
      "ren": 857,
      "ever": 858,
      "Ġgent": 859,
      "Ġheart": 860,
      "'ll": 861,
      "ory": 862,
      "the": 863,
      "Ġgot": 864,
      "Ġplace": 865,
      "atter": 866,
      "He": 867,
      "Ġright": 868,
      "ible": 869,
      "Ġapp": 870,
      "ors": 871,
      "ob": 872,
      "Ġmean": 873,
      "cl": 874,
      "Ġonce": 875,
      "ĠYou": 876,
      "Ġdist": 877,
      "Ġear": 878,
      "land": 879,
      "Ġknew": 880,
      "gg": 881,
      "Ġansw": 882,
      "Ġhapp": 883,
      "Ġalways": 884,
      "owed": 885,
      "Ġenough": 886,
      "And": 887,
      "ank": 888,
      "Ġcour": 889,
      "ĠCh": 890,
      "Ġ(": 891,
      "Ġpleas": 892,
      "But": 893,
      "Ġtook": 894,
      "Ġset": 895,
      "ince": 896,
      "Ġheard": 897,
      "uck": 898,
      "Ġcount": 899,
      "Ġanother": 900,
      "ner": 901,
      "Ġcomm": 902,
      "ĠV": 903,
      "Ġac": 904,
      "te": 905,
      "Ġleft": 906,
      "Ġfell": 907,
      "lt": 908,
      "ither": 909,
      "Ġnew": 910,
      "Ġlove": 911,
      "Ġser": 912,
      "ertain": 913,
      "Ġquite": 914,
      "aw": 915,
      "iv": 916,
      "rew": 917,
      "Ġbetter": 918,
      "ens": 919,
      "ru": 920,
      "Ġdone": 921,
      "Ġsat": 922,
      "ange": 923,
      "Ġmother": 924,
      "Ġlight": 925,
      "Ġsupp": 926,
      "av": 927,
      "Ġhands": 928,
      "Ġsame": 929,
      "ĠThey": 930,
      "hy": 931,
      "Ġkind": 932,
      "aps": 933,
      "Ġsomething": 934,
      "Ġarm": 935,
      "den": 936,
      "Ġpers": 937,
      "Ġworld": 938,
      "ret": 939,
      "sh": 940,
      "Ġwoman": 941,
      "for": 942,
      "Ġpoor": 943,
      "aught": 944,
      "ished": 945,
      "Ġdoor": 946,
      "pped": 947,
      "ĠThere": 948,
      "ition": 949,
      "Ġlo": 950,
      "iness": 951,
      "Ġsw": 952,
      "Ġbo": 953,
      "ched": 954,
      "Ġtold": 955,
      "Ġgoing": 956,
      "ject": 957,
      "ix": 958,
      "Ġwork": 959,
      "Ġrec": 960,
      "ss": 961,
      "Ġgentle": 962,
      "Ġwa": 963,
      "Ġappe": 964,
      "Ġinst": 965,
      "Ġfind": 966,
      "Ġsoon": 967,
      "ning": 968,
      "Ġhalf": 969,
      "Ġhome": 970,
      "ĠSt": 971,
      "Ġwind": 972,
      "Ġho": 973,
      "aster": 974,
      "Ġside": 975,
      "ces": 976,
      "mer": 977,
      "Ġrep": 978,
      "Ġround": 979,
      "Ġseen": 980,
      "sel": 981,
      "Ġroom": 982,
      "Ġhard": 983,
      "Ġgive": 984,
      "ently": 985,
      "wards": 986,
      "ub": 987,
      "und": 988,
      "Ġco": 989,
      "Ġherself": 990,
      "Ġdel": 991,
      "ase": 992,
      "Ġthree": 993,
      "ib": 994,
      "Ġsec": 995,
      "Ġsil": 996,
      "Ġbelie": 997,
      "most": 998,
      "ace": 999,
      "ult": 1000,
      "Ġreturn": 1001,
      "Ġnat": 1002,
      "Ġbegan": 1003,
      "Ġfar": 1004,
      "aut": 1005,
      "ction": 1006,
      "ool": 1007,
      "eed": 1008,
      "irl": 1009,
      "Ġsure": 1010,
      "Ġvo": 1011,
      "ĠIn": 1012,
      "ĠMiss": 1013,
      "Ġagainst": 1014,
      "aid": 1015,
      "ener": 1016,
      "Ġsur": 1017,
      "Ġhaving": 1018,
      "Ġfoll": 1019,
      "ict": 1020,
      "Ġbecause": 1021,
      "Ġem": 1022,
      "ott": 1023,
      "Ġlady": 1024,
      "Ġasked": 1025,
      "haps": 1026,
      "fect": 1027,
      "ower": 1028,
      "Ġmyself": 1029,
      "ined": 1030,
      "Ġnear": 1031,
      "ations": 1032,
      "Ġturned": 1033,
      "Ġcle": 1034,
      "Ġfelt": 1035,
      "Ġconf": 1036,
      "ired": 1037,
      "Ġdiff": 1038,
      "cept": 1039,
      "ained": 1040,
      "..": 1041,
      "Ġrest": 1042,
      "Ġstood": 1043,
      "Ġamong": 1044,
      "xt": 1045,
      "Ġexp": 1046,
      "Ġcur": 1047,
      "so": 1048,
      "oub": 1049,
      "Ġdear": 1050,
      "Ġboy": 1051,
      "Ġkeep": 1052,
      "gether": 1053,
      "Ġbeh": 1054,
      "Ġsub": 1055,
      "Ġgirl": 1056,
      "ail": 1057,
      "Ġgi": 1058,
      "Ġrather": 1059,
      "Ġfam": 1060,
      "ale": 1061,
      "ween": 1062,
      "Ġposs": 1063,
      "iver": 1064,
      "med": 1065,
      "ross": 1066,
      "aken": 1067,
      "Ġhel": 1068,
      "cess": 1069,
      "ĠWe": 1070,
      "Ġocc": 1071,
      "Ġbre": 1072,
      "Ġcare": 1073,
      "not": 1074,
      "ows": 1075,
      "Ġche": 1076,
      "ense": 1077,
      "ual": 1078,
      "Ġgu": 1079,
      "Ġhear": 1080,
      "end": 1081,
      "Ġtre": 1082,
      "Ġhor": 1083,
      "Ġsir": 1084,
      "raw": 1085,
      "ung": 1086,
      "Ġhour": 1087,
      "Ġstre": 1088,
      "Ġmorn": 1089,
      "vent": 1090,
      "Ġbetween": 1091,
      "up": 1092,
      "Ġfew": 1093,
      "Ġtill": 1094,
      "Ġtalk": 1095,
      "oke": 1096,
      "Ġrel": 1097,
      "ully": 1098,
      "Ġdisc": 1099,
      "ised": 1100,
      "ular": 1101,
      "ia": 1102,
      "Ġyears": 1103,
      "Ġgave": 1104,
      "ering": 1105,
      "Ġlooking": 1106,
      "ason": 1107,
      "Ġnor": 1108,
      "Ġread": 1109,
      "ited": 1110,
      "Ġmo": 1111,
      "ĠEng": 1112,
      "Ġbus": 1113,
      "rave": 1114,
      "ery": 1115,
      "'ve": 1116,
      "apt": 1117,
      "Ġcourse": 1118,
      "here": 1119,
      "ER": 1120,
      "Ġeach": 1121,
      "What": 1122,
      "Ġmorning": 1123,
      "ek": 1124,
      "Ġvoice": 1125,
      "Ġname": 1126,
      "?'": 1127,
      "oud": 1128,
      "ĠY": 1129,
      "Ġcertain": 1130,
      "Ġcr": 1131,
      "Ġbest": 1132,
      "--\"": 1133,
      "amp": 1134,
      "Ġinter": 1135,
      "Ġanything": 1136,
      "Ġel": 1137,
      "Ġhum": 1138,
      "be": 1139,
      "Ġwond": 1140,
      "Ġass": 1141,
      "Ġwhole": 1142,
      "Ġwhom": 1143,
      "Ġord": 1144,
      "Th": 1145,
      "Ġcried": 1146,
      "ures": 1147,
      "Ġaw": 1148,
      "Ġdre": 1149,
      "Ġwords": 1150,
      "Ġadd": 1151,
      "Ġmin": 1152,
      "oot": 1153,
      "Ġdr": 1154,
      "Ġins": 1155,
      "ier": 1156,
      "iet": 1157,
      "'d": 1158,
      "Ġopen": 1159,
      "Ġmon": 1160,
      "osed": 1161,
      "Ġlay": 1162,
      "Ġhon": 1163,
      "Ġreg": 1164,
      "Ġalmost": 1165,
      "Ġmatter": 1166,
      "arge": 1167,
      "ute": 1168,
      "Ġdark": 1169,
      "ister": 1170,
      "Ġgone": 1171,
      "ating": 1172,
      "She": 1173,
      "selves": 1174,
      "Ġste": 1175,
      "its": 1176,
      "Ġbro": 1177,
      "lack": 1178,
      "Ġpur": 1179,
      "Ġfore": 1180,
      "ern": 1181,
      "Ġindeed": 1182,
      "'m": 1183,
      "Ġair": 1184,
      "ged": 1185,
      "arn": 1186,
      "owing": 1187,
      "Ġref": 1188,
      "ude": 1189,
      "Ġboth": 1190,
      "Ġpoint": 1191,
      "Ġbeaut": 1192,
      "Ġdays": 1193,
      "Ġcalled": 1194,
      "Ġnext": 1195,
      "Ġvis": 1196,
      "Ġsmall": 1197,
      "Ġhelp": 1198,
      "Ġwater": 1199,
      "ial": 1200,
      "ical": 1201,
      "Ġunderst": 1202,
      "oney": 1203,
      "to": 1204,
      "aint": 1205,
      "ins": 1206,
      "og": 1207,
      "Ġunc": 1208,
      "Ġunt": 1209,
      "Ġstand": 1210,
      "Ġpresent": 1211,
      "Ġless": 1212,
      "body": 1213,
      "Ġsays": 1214,
      "ĠSir": 1215,
      "ĠIf": 1216,
      "Ġspeak": 1217,
      "Ġbrought": 1218,
      "Ġact": 1219,
      "ps": 1220,
      "ans": 1221,
      "!'": 1222,
      "Ġsk": 1223,
      "Oh": 1224,
      "dden": 1225,
      "but": 1226,
      "Ġanswered": 1227,
      "ĠThen": 1228,
      "uth": 1229,
      "Ġinc": 1230,
      "Ġperson": 1231,
      "pr": 1232,
      "li": 1233,
      "ately": 1234,
      "ont": 1235,
      "Ġexc": 1236,
      "Ġlau": 1237,
      "ple": 1238,
      "Ġcountry": 1239,
      "Ġsince": 1240,
      "ĠHis": 1241,
      "eth": 1242,
      "Ġhigh": 1243,
      "Ġland": 1244,
      "cy": 1245,
      "Ġtogether": 1246,
      "No": 1247,
      "fort": 1248,
      "Ġter": 1249,
      "unt": 1250,
      "Ġcompan": 1251,
      "men": 1252,
      "Ġsudden": 1253,
      "Ġsort": 1254,
      "Ġhope": 1255,
      "Ġwhite": 1256,
      "Ġdoub": 1257,
      "erest": 1258,
      "Ġsun": 1259,
      "ser": 1260,
      "ured": 1261,
      "Ġleast": 1262,
      "Ġalong": 1263,
      "aring": 1264,
      "ĠAn": 1265,
      "Ġperhaps": 1266,
      "Well": 1267,
      "Ġdec": 1268,
      "Ġsle": 1269,
      "ĠGod": 1270,
      "Ġhowever": 1271,
      "Ġgener": 1272,
      "oh": 1273,
      "Ġsent": 1274,
      "Ġwife": 1275,
      "att": 1276,
      "fully": 1277,
      "ph": 1278,
      "that": 1279,
      "Ġbelieve": 1280,
      "ĠThis": 1281,
      "Ġmoney": 1282,
      "ash": 1283,
      "ressed": 1284,
      "Ġremem": 1285,
      "Ġrun": 1286,
      "Ġfull": 1287,
      "az": 1288,
      "Ġadv": 1289,
      "plied": 1290,
      "Ġpassed": 1291,
      "ention": 1292,
      "Ġtaken": 1293,
      "Ġblack": 1294,
      "alked": 1295,
      "Ġlad": 1296,
      "Ġdeep": 1297,
      "ken": 1298,
      "Ġwish": 1299,
      "ued": 1300,
      "Ġstrong": 1301,
      "ief": 1302,
      "Yes": 1303,
      "ĠWhat": 1304,
      "Ġneed": 1305,
      "ene": 1306,
      "ying": 1307,
      "Ġbed": 1308,
      "ĠMar": 1309,
      "Ġquest": 1310,
      "outh": 1311,
      "Ġbehind": 1312,
      "ĠAs": 1313,
      "ten": 1314,
      "Ġcontin": 1315,
      "Ġinterest": 1316,
      "Ġfall": 1317,
      "Ġdoes": 1318,
      "Ġtowards": 1319,
      "Ġfire": 1320,
      "Ġadm": 1321,
      "oun": 1322,
      "aptain": 1323,
      "Ġgentleman": 1324,
      "Ġeff": 1325,
      "cei": 1326,
      "Ġsound": 1327,
      "Ġexpect": 1328,
      "ane": 1329,
      "Ġreason": 1330,
      "Ġwhose": 1331,
      "Ġtrue": 1332,
      "Ġpret": 1333,
      "ents": 1334,
      "Ġask": 1335,
      "vers": 1336,
      "Ġuntil": 1337,
      "Ġuse": 1338,
      "Ġred": 1339,
      "ĠBr": 1340,
      "ĠThat": 1341,
      "Ġmis": 1342,
      "ract": 1343,
      "Ġreplied": 1344,
      "ĠU": 1345,
      "Ġhold": 1346,
      "Ġchildren": 1347,
      "ĠWhen": 1348,
      "Ġext": 1349,
      "That": 1350,
      "Ġfamily": 1351,
      "Ġchar": 1352,
      "ĠFor": 1353,
      "ĠAl": 1354,
      "Ġmanner": 1355,
      "irc": 1356,
      "ably": 1357,
      "Ġprop": 1358,
      "Ġplay": 1359,
      "no": 1360,
      "Ġdoubt": 1361,
      "ught": 1362,
      "Ġinf": 1363,
      "Ġalso": 1364,
      "ley": 1365,
      "Ġused": 1366,
      "Ġleave": 1367,
      "HA": 1368,
      "Ġthemselves": 1369,
      "used": 1370,
      "There": 1371,
      "Ġev": 1372,
      "Ġserv": 1373,
      "lish": 1374,
      "aven": 1375,
      "Ġsn": 1376,
      "Ġdead": 1377,
      ",--": 1378,
      "Ġletter": 1379,
      "anger": 1380,
      "ĠDe": 1381,
      "Ġwalk": 1382,
      "Ġsim": 1383,
      "Ġfair": 1384,
      "We": 1385,
      "Ġhus": 1386,
      "Ġbur": 1387,
      "iting": 1388,
      "mb": 1389,
      "ĠAt": 1390,
      "TER": 1391,
      "Ġtimes": 1392,
      "Ġgre": 1393,
      "Ġshort": 1394,
      "Ġfeet": 1395,
      "rying": 1396,
      "cious": 1397,
      "ĠLord": 1398,
      "Ġdire": 1399,
      "ĠSo": 1400,
      "ho": 1401,
      "ances": 1402,
      "ching": 1403,
      "iled": 1404,
      "Ġill": 1405,
      "Ġcannot": 1406,
      "ets": 1407,
      "ually": 1408,
      "Ġwonder": 1409,
      "bed": 1410,
      "Ġcoming": 1411,
      "Ġsing": 1412,
      "Ġelse": 1413,
      "act": 1414,
      "ants": 1415,
      "Ġunderstand": 1416,
      "Ġbu": 1417,
      "Ġes": 1418,
      "Ġide": 1419,
      "ey": 1420,
      "my": 1421,
      "Ġoften": 1422,
      "day": 1423,
      "ield": 1424,
      "imes": 1425,
      "Ġreally": 1426,
      "eng": 1427,
      "Ġfear": 1428,
      "ains": 1429,
      "Ġobser": 1430,
      "Ġprom": 1431,
      "Ġswe": 1432,
      "Ġcond": 1433,
      "ments": 1434,
      "Ġfact": 1435,
      "Ġdiffere": 1436,
      "Ġhur": 1437,
      "Ġeas": 1438,
      "Ġlist": 1439,
      "Ġbrother": 1440,
      "Ġcirc": 1441,
      "Ġsuff": 1442,
      "Ġdet": 1443,
      "ached": 1444,
      "Ġsister": 1445,
      "lic": 1446,
      "gs": 1447,
      "Ġlarge": 1448,
      "band": 1449,
      "Ġdro": 1450,
      "Ġhorse": 1451,
      "race": 1452,
      "ohn": 1453,
      "Ġinv": 1454,
      "Ġform": 1455,
      "ney": 1456,
      "oor": 1457,
      "ĠTom": 1458,
      "undred": 1459,
      "Ġwhy": 1460,
      "Ġbusiness": 1461,
      "Ġkept": 1462,
      "ceed": 1463,
      "aughter": 1464,
      "Ġspir": 1465,
      "ny": 1466,
      "Ġfur": 1467,
      "nce": 1468,
      "Ġothers": 1469,
      "Ġalone": 1470,
      "Ġstrange": 1471,
      "Ġpower": 1472,
      "Ġeye": 1473,
      "Ġgiven": 1474,
      "Ġbit": 1475,
      "Ġabove": 1476,
      "Ġreturned": 1477,
      "Ġwar": 1478,
      "Ġpretty": 1479,
      "Ġfellow": 1480,
      "Ġlow": 1481,
      "Ġstart": 1482,
      "night": 1483,
      "Ġlive": 1484,
      "ĠPr": 1485,
      "Ġart": 1486,
      "ides": 1487,
      "Ġhundred": 1488,
      "HAP": 1489,
      "HAPTER": 1490,
      "Ġclose": 1491,
      "Ġwithin": 1492,
      "oul": 1493,
      "urch": 1494,
      "ĠNo": 1495,
      "Ġknown": 1496,
      "Ġquiet": 1497,
      "'re": 1498,
      "Ġsign": 1499,
      "Ġpri": 1500,
      "iful": 1501,
      "Ġhusband": 1502,
      "Ġopp": 1503,
      "Ġpat": 1504,
      "ship": 1505,
      "Ġfour": 1506,
      "ages": 1507,
      "laim": 1508,
      "empt": 1509,
      "ider": 1510,
      "ird": 1511,
      "Ġfoot": 1512,
      "ĠFr": 1513,
      "Ġdeath": 1514,
      "Ġevening": 1515,
      "Ġaff": 1516,
      "ĠBe": 1517,
      "Ġwhether": 1518,
      "ready": 1519,
      "akes": 1520,
      "Ġpartic": 1521,
      "als": 1522,
      "uring": 1523,
      "Ġground": 1524,
      "ison": 1525,
      "Mr": 1526,
      "ceived": 1527,
      "orrow": 1528,
      "Ġspoke": 1529,
      "ham": 1530,
      "ĠJohn": 1531,
      "Ġmet": 1532,
      "Ġheld": 1533,
      "ided": 1534,
      "Ġsight": 1535,
      "ience": 1536,
      "ĠEnglish": 1537,
      "Ġpar": 1538,
      "app": 1539,
      "uff": 1540,
      "you": 1541,
      "ug": 1542,
      "Ġbes": 1543,
      "ater": 1544,
      "Ġwood": 1545,
      "iew": 1546,
      "Ġson": 1547,
      "Ġmer": 1548,
      "ĠHer": 1549,
      "Ġfriends": 1550,
      "Ġbody": 1551,
      "iam": 1552,
      "ĠWill": 1553,
      "vel": 1554,
      "by": 1555,
      "ĠHow": 1556,
      "Ġmeet": 1557,
      "Ġlost": 1558,
      "Ġsit": 1559,
      "ities": 1560,
      "Ġclear": 1561,
      "Ġalready": 1562,
      "ald": 1563,
      "Ġfort": 1564,
      "enty": 1565,
      "Ġdev": 1566,
      "This": 1567,
      "idd": 1568,
      "ĠKing": 1569,
      "son": 1570,
      "Ġitself": 1571,
      "Ġmaking": 1572,
      "Ġtri": 1573,
      "Ġship": 1574,
      "Ġsea": 1575,
      "Ġsuppose": 1576,
      "Ġbegin": 1577,
      "Ġdep": 1578,
      "Ġthou": 1579,
      "Ġoccas": 1580,
      "Ġmist": 1581,
      "They": 1582,
      "Ġfeeling": 1583,
      "Ġforg": 1584,
      "ape": 1585,
      "Ġreal": 1586,
      "airs": 1587,
      "umb": 1588,
      "ush": 1589,
      "Ġabs": 1590,
      "rist": 1591,
      "overed": 1592,
      "Ġsurpr": 1593,
      "ient": 1594,
      "Ġbig": 1595,
      "ks": 1596,
      "Ġfin": 1597,
      "Ġdeal": 1598,
      "Ġfine": 1599,
      "Ġbook": 1600,
      "ah": 1601,
      "Ġir": 1602,
      "illed": 1603,
      "Ġcreat": 1604,
      "itting": 1605,
      "amb": 1606,
      "riage": 1607,
      "use": 1608,
      "Ġbad": 1609,
      "Ġsleep": 1610,
      "Ġeverything": 1611,
      "Ġanswer": 1612,
      "ches": 1613,
      "Ġdef": 1614,
      "Ġmaster": 1615,
      "Ġwild": 1616,
      "room": 1617,
      "Ġwomen": 1618,
      "Ġweek": 1619,
      "Ġsense": 1620,
      "Ġquestion": 1621,
      "Ġten": 1622,
      "oura": 1623,
      "Ġarms": 1624,
      "ift": 1625,
      "In": 1626,
      "Ġbring": 1627,
      "Ġwall": 1628,
      "ĠDo": 1629,
      "osition": 1630,
      "ouble": 1631,
      "ĠInd": 1632,
      "let": 1633,
      "Ġbar": 1634,
      "Ġsto": 1635,
      "Ġeither": 1636,
      "My": 1637,
      "ee": 1638,
      "Ġtra": 1639,
      "ates": 1640,
      "Ġexpl": 1641,
      "Ġyear": 1642,
      "Ġsubject": 1643,
      "ific": 1644,
      "agg": 1645,
      "Ġhair": 1646,
      "Ġappear": 1647,
      "Ġlaugh": 1648,
      "Ġsum": 1649,
      "Ġremember": 1650,
      "Ġacross": 1651,
      "ingly": 1652,
      "Ġtou": 1653,
      "Ġcol": 1654,
      "ĠMy": 1655,
      "ĠLady": 1656,
      "Ġquick": 1657,
      "Ġbecame": 1658,
      "Ġlaw": 1659,
      "Then": 1660,
      "Ġmil": 1661,
      "ĠAll": 1662,
      "Ġdisp": 1663,
      "Ġnature": 1664,
      "Ġready": 1665,
      "Ġcast": 1666,
      "Ġslow": 1667,
      "Why": 1668,
      "Ġwon": 1669,
      "ump": 1670,
      "Ġrespect": 1671,
      "mon": 1672,
      "Ġdream": 1673,
      "Ġought": 1674,
      "ility": 1675,
      "nded": 1676,
      "Ġcase": 1677,
      "utter": 1678,
      "Ġaround": 1679,
      "Ġimag": 1680,
      "gr": 1681,
      "Ġglad": 1682,
      "fter": 1683,
      "isf": 1684,
      "ster": 1685,
      "Ġexcept": 1686,
      "Ġhappy": 1687,
      "Ġtable": 1688,
      "Ġaccount": 1689,
      "Ġpap": 1690,
      "Ġtruth": 1691,
      "Ġexpress": 1692,
      "ĠGr": 1693,
      "ident": 1694,
      "Ġdidn": 1695,
      "Ġdraw": 1696,
      "une": 1697,
      "Ġroad": 1698,
      "Ġbreat": 1699,
      "Ġworth": 1700,
      "Ġdra": 1701,
      "iously": 1702,
      "Ġstep": 1703,
      "Ġwanted": 1704,
      "Ġmeans": 1705,
      "Ġsuddenly": 1706,
      "lect": 1707,
      "Ġaffect": 1708,
      "urd": 1709,
      "Ġcold": 1710,
      "cri": 1711,
      "Ġappro": 1712,
      "ime": 1713,
      "Ġwindow": 1714,
      "ats": 1715,
      "du": 1716,
      "Ġparticular": 1717,
      "Ġdin": 1718,
      "ĠTo": 1719,
      "ousand": 1720,
      "Ġsoft": 1721,
      "br": 1722,
      "Ġmere": 1723,
      "Ġpain": 1724,
      "Ġsoul": 1725,
      "Ġsever": 1726,
      "),": 1727,
      "Ġang": 1728,
      "ices": 1729,
      "Ġobject": 1730,
      "Ġran": 1731,
      "Ġlearn": 1732,
      "ards": 1733,
      "Ġvill": 1734,
      "Ġcomfort": 1735,
      "Ġappeared": 1736,
      "ising": 1737,
      "Ġtown": 1738,
      "Ġgold": 1739,
      "Ġwalked": 1740,
      "Ġbeautiful": 1741,
      "Ġdaughter": 1742,
      "acter": 1743,
      "Ġsecond": 1744,
      "Ġnatur": 1745,
      "ĠMary": 1746,
      "Ġpossible": 1747,
      "anged": 1748,
      "Ġhast": 1749,
      "king": 1750,
      "Ġra": 1751,
      "Ġfollowed": 1752,
      "Ġpol": 1753,
      "Ġspr": 1754,
      "over": 1755,
      "Ġsix": 1756,
      "II": 1757,
      "Ġjud": 1758,
      "HE": 1759,
      "Ġbreak": 1760,
      "Ġperfect": 1761,
      "aded": 1762,
      "Ġthousand": 1763,
      "Ġcorn": 1764,
      "Ġed": 1765,
      "Ġfav": 1766,
      "wh": 1767,
      "ination": 1768,
      "Ġstay": 1769,
      "Ġdri": 1770,
      "Ġoccasion": 1771,
      "Ġcharacter": 1772,
      "Ġself": 1773,
      "Ġearth": 1774,
      "Ġwhis": 1775,
      "If": 1776,
      "side": 1777,
      "Ġacqu": 1778,
      "Ġblood": 1779,
      "ury": 1780,
      "Ġnecess": 1781,
      "raid": 1782,
      "Ġeng": 1783,
      "Ġlea": 1784,
      "ĠHere": 1785,
      "How": 1786,
      "ead": 1787,
      "Ġidea": 1788,
      "Ġdelight": 1789,
      "Ġscar": 1790,
      "Ġfive": 1791,
      "Ġrose": 1792,
      "Ġorder": 1793,
      "Ġshow": 1794,
      "hil": 1795,
      "Ġlord": 1796,
      "Ġsus": 1797,
      "Ġyourself": 1798,
      "CHAPTER": 1799,
      "itude": 1800,
      "ancy": 1801,
      "Ġthee": 1802,
      "Ġconc": 1803,
      "Ġinstant": 1804,
      "Ġcommon": 1805,
      "Ġthinking": 1806,
      "Ġpast": 1807,
      "Ġcontinued": 1808,
      "Ġprof": 1809,
      "When": 1810,
      "ĠAr": 1811,
      "Ġmount": 1812,
      "Ġhuman": 1813,
      "Ġsad": 1814,
      "Ġsometimes": 1815,
      "ĠWh": 1816,
      "lled": 1817,
      "Ġdifferent": 1818,
      "light": 1819,
      "oint": 1820,
      "form": 1821,
      "ames": 1822,
      "Ġquar": 1823,
      "Ġstory": 1824,
      "ety": 1825,
      "Ġforward": 1826,
      "Ġgrand": 1827,
      "itted": 1828,
      "Ġsecret": 1829,
      "Ġsaf": 1830,
      "ec": 1831,
      "ĠX": 1832,
      "Ġseveral": 1833,
      "ugg": 1834,
      "Ġmus": 1835,
      "Ġeffect": 1836,
      "ĠChrist": 1837,
      "Ġconsider": 1838,
      "Ġtaking": 1839,
      "Ġnone": 1840,
      "ĠDor": 1841,
      "ushed": 1842,
      "Ġheav": 1843,
      "Ġpie": 1844,
      "what": 1845,
      "rie": 1846,
      "pan": 1847,
      "Ġcut": 1848,
      "Ġwrong": 1849,
      "ctor": 1850,
      "Ġadded": 1851,
      "Ġstate": 1852,
      "Ġmine": 1853,
      "Ġsatisf": 1854,
      "Ġthy": 1855,
      "medi": 1856,
      "ĠQ": 1857,
      "Ġbright": 1858,
      "ĠCaptain": 1859,
      "wor": 1860,
      "Ġca": 1861,
      "So": 1862,
      "where": 1863,
      "ĠOn": 1864,
      "ighb": 1865,
      "Ġsaying": 1866,
      "Ġresol": 1867,
      "Ġmonth": 1868,
      "Ġsch": 1869,
      "Ġopin": 1870,
      "Ġafraid": 1871,
      "Ġsqu": 1872,
      "though": 1873,
      "Ġanx": 1874,
      "co": 1875,
      "Ġfig": 1876,
      "ening": 1877,
      "Ġable": 1878,
      "Ġlead": 1879,
      "yond": 1880,
      "ĠWell": 1881,
      "Ġgard": 1882,
      "Ġsy": 1883,
      "aj": 1884,
      "cul": 1885,
      "idence": 1886,
      "Ġpleasure": 1887,
      "Ġpay": 1888,
      "Ġinqu": 1889,
      "Ġcal": 1890,
      "Ġdoing": 1891,
      "ler": 1892,
      "resh": 1893,
      "Ġcor": 1894,
      "Ġhardly": 1895,
      "arent": 1896,
      "Ġve": 1897,
      "iling": 1898,
      "Ġbeyond": 1899,
      "Ġdanger": 1900,
      "Ġview": 1901,
      "ĠLe": 1902,
      "Ġprin": 1903,
      "ton": 1904,
      "Ġvisit": 1905,
      "ĠRe": 1906,
      "ledge": 1907,
      "ative": 1908,
      "Ġlonger": 1909,
      "Ġopened": 1910,
      "ondon": 1911,
      "Ġcarried": 1912,
      "ĠNow": 1913,
      "Ġhours": 1914,
      "ote": 1915,
      "Ġforth": 1916,
      "Ġentered": 1917,
      "Ġmad": 1918,
      "ĠEl": 1919,
      "Ġled": 1920,
      "Ġarri": 1921,
      "Ġneither": 1922,
      "Ġimmedi": 1923,
      "ma": 1924,
      "utes": 1925,
      "atch": 1926,
      "otion": 1927,
      "Ġ.": 1928,
      "ĠLondon": 1929,
      "Ġwarm": 1930,
      "Ġking": 1931,
      "Ġmouth": 1932,
      "Ġmove": 1933,
      "Ġsweet": 1934,
      "Ġtried": 1935,
      "Ġdirect": 1936,
      "str": 1937,
      "Ġchurch": 1938,
      "dd": 1939,
      "ines": 1940,
      "Ġneighb": 1941,
      "ĠSc": 1942,
      "Ġprep": 1943,
      "Ġlaid": 1944,
      "Ġhill": 1945,
      "wick": 1946,
      "Ġcap": 1947,
      "iar": 1948,
      "ĠHar": 1949,
      "ĠNew": 1950,
      "Ġsilence": 1951,
      "alth": 1952,
      "oof": 1953,
      "irt": 1954,
      "like": 1955,
      "Ġcircum": 1956,
      "Now": 1957,
      "ony": 1958,
      "Ġdut": 1959,
      "As": 1960,
      "ots": 1961,
      "Ġfree": 1962,
      "pping": 1963,
      "Ġrequ": 1964,
      "Ġbear": 1965,
      "Ġcross": 1966,
      "Ġbecome": 1967,
      "Ġhung": 1968,
      "Ġmod": 1969,
      "rench": 1970,
      "Ġdiffic": 1971,
      "iment": 1972,
      "ĠEngland": 1973,
      "Ġlate": 1974,
      "Ġequ": 1975,
      "Ġmeant": 1976,
      "Ġlived": 1977,
      "oe": 1978,
      "arp": 1979,
      "law": 1980,
      "Ġtrust": 1981,
      "Ġspirit": 1982,
      "Ġest": 1983,
      "Ġwis": 1984,
      "Ġmag": 1985,
      "Ġfast": 1986,
      "Ġsmile": 1987,
      "read": 1988,
      "Ġchange": 1989,
      "ased": 1990,
      "Ġ1": 1991,
      "Ġfool": 1992,
      "Ġtem": 1993,
      "rupt": 1994,
      "Ġstra": 1995,
      "Ġusual": 1996,
      "ession": 1997,
      "ze": 1998,
      "Ġesc": 1999,
      "ror": 2000,
      "anced": 2001,
      "Ġtrees": 2002,
      "Ġrock": 2003,
      "Ġthus": 2004,
      "ĠNor": 2005,
      "Ġbott": 2006,
      "ized": 2007,
      "Ġcommand": 2008,
      "Ġleng": 2009,
      "icked": 2010,
      "Not": 2011,
      "Ġfight": 2012,
      "Ġhappened": 2013,
      "de": 2014,
      "Ġgeneral": 2015,
      "Ġplain": 2016,
      "Ġuncle": 2017,
      "erm": 2018,
      "Ġcircumst": 2019,
      "Ġtone": 2020,
      "Ġele": 2021,
      "Ġthoughts": 2022,
      "Ġregard": 2023,
      "Ġstri": 2024,
      "Ġtrouble": 2025,
      "Ġseems": 2026,
      "Ġgrave": 2027,
      "Ġladies": 2028,
      "Ġstruck": 2029,
      "Ġriver": 2030,
      "Ġspo": 2031,
      "Ġscarce": 2032,
      "aged": 2033,
      "Ġknows": 2034,
      "ĠOne": 2035,
      "Ġchance": 2036,
      "ager": 2037,
      "Ġpriv": 2038,
      "Ġminutes": 2039,
      "Ġbene": 2040,
      "Ġpurp": 2041,
      "Ġfront": 2042,
      "oes": 2043,
      "ĠAd": 2044,
      "ified": 2045,
      "laimed": 2046,
      "etty": 2047
    },
    "merges": [
      [
        "Ġ",
        "t"
      ],
      [
        "h",
        "e"
      ],
      [
        "Ġ",
        "a"
      ],
      [
        "i",
        "n"
      ],
      [
        "Ġ",
        "w"
      ],
      [
        "Ġ",
        "s"
      ],
      [
        "Ġt",
        "he"
      ],
      [
        "Ġ",
        "o"
      ],
      [
        "r",
        "e"
      ],
      [
        "n",
        "d"
      ],
      [
        "Ġ",
        "h"
      ],
      [
        "o",
        "u"
      ],
      [
        "e",
        "r"
      ],
      [
        "Ġ",
        "b"
      ],
      [
        "Ġ",
        "m"
      ],
      [
        "i",
        "t"
      ],
      [
        "a",
        "t"
      ],
      [
        "e",
        "d"
      ],
      [
        "Ġ",
        "f"
      ],
      [
        "i",
        "s"
      ],
      [
        "Ġa",
        "nd"
      ],
      [
        "Ġ",
        "c"
      ],
      [
        "e",
        "n"
      ],
      [
        "Ġt",
        "o"
      ],
      [
        "Ġo",
        "f"
      ],
      [
        "in",
        "g"
      ],
      [
        "o",
        "n"
      ],
      [
        "Ġt",
        "h"
      ],
      [
        "o",
        "r"
      ],
      [
        "a",
        "s"
      ],
      [
        "Ġ",
        "d"
      ],
      [
        "Ġ",
        "he"
      ],
      [
        "a",
        "r"
      ],
      [
        "a",
        "n"
      ],
      [
        "l",
        "l"
      ],
      [
        "Ġ",
        "p"
      ],
      [
        "Ġ",
        "l"
      ],
      [
        "e",
        "s"
      ],
      [
        "Ġ",
        "in"
      ],
      [
        "Ġ",
        "n"
      ],
      [
        "Ġh",
        "a"
      ],
      [
        "o",
        "m"
      ],
      [
        "Ġ",
        "I"
      ],
      [
        "Ġb",
        "e"
      ],
      [
        "Ġ",
        "g"
      ],
      [
        "l",
        "e"
      ],
      [
        "o",
        "t"
      ],
      [
        "o",
        "w"
      ],
      [
        "u",
        "t"
      ],
      [
        "l",
        "d"
      ],
      [
        "Ġw",
        "as"
      ],
      [
        "i",
        "d"
      ],
      [
        "i",
        "c"
      ],
      [
        "Ġ",
        "y"
      ],
      [
        "Ġ",
        "e"
      ],
      [
        "v",
        "e"
      ],
      [
        "i",
        "m"
      ],
      [
        "g",
        "h"
      ],
      [
        "s",
        "e"
      ],
      [
        "l",
        "y"
      ],
      [
        "Ġth",
        "at"
      ],
      [
        "Ġw",
        "h"
      ],
      [
        "s",
        "t"
      ],
      [
        "Ġ",
        "it"
      ],
      [
        "Ġy",
        "ou"
      ],
      [
        "en",
        "t"
      ],
      [
        "Ġo",
        "n"
      ],
      [
        "v",
        "er"
      ],
      [
        "Ġ",
        "u"
      ],
      [
        "Ġh",
        "is"
      ],
      [
        "a",
        "y"
      ],
      [
        "it",
        "h"
      ],
      [
        "c",
        "e"
      ],
      [
        "Ġa",
        "s"
      ],
      [
        "Ġ",
        "re"
      ],
      [
        "e",
        "t"
      ],
      [
        "i",
        "r"
      ],
      [
        "Ġw",
        "ith"
      ],
      [
        "Ġf",
        "or"
      ],
      [
        "Ġhe",
        "r"
      ],
      [
        "a",
        "d"
      ],
      [
        "i",
        "on"
      ],
      [
        "Ġha",
        "d"
      ],
      [
        "Ġw",
        "e"
      ],
      [
        "gh",
        "t"
      ],
      [
        "a",
        "l"
      ],
      [
        "u",
        "r"
      ],
      [
        "Ġs",
        "t"
      ],
      [
        "Ġ",
        "r"
      ],
      [
        "Ġn",
        "ot"
      ],
      [
        "o",
        "o"
      ],
      [
        "Ġs",
        "a"
      ],
      [
        "ou",
        "ld"
      ],
      [
        "he",
        "r"
      ],
      [
        "Ġa",
        "n"
      ],
      [
        "c",
        "h"
      ],
      [
        "Ġ",
        "T"
      ],
      [
        "Ġa",
        "t"
      ],
      [
        "-",
        "-"
      ],
      [
        "a",
        "m"
      ],
      [
        "k",
        "e"
      ],
      [
        "Ġ",
        "M"
      ],
      [
        "t",
        "er"
      ],
      [
        "Ġh",
        "im"
      ],
      [
        "i",
        "f"
      ],
      [
        "'",
        "s"
      ],
      [
        "Ġm",
        "e"
      ],
      [
        "i",
        "ll"
      ],
      [
        "Ġs",
        "he"
      ],
      [
        "Ġs",
        "e"
      ],
      [
        "Ġs",
        "h"
      ],
      [
        "i",
        "ght"
      ],
      [
        "c",
        "t"
      ],
      [
        "a",
        "in"
      ],
      [
        "Ġ",
        "\""
      ],
      [
        "Ġ",
        "is"
      ],
      [
        "Ġ",
        "H"
      ],
      [
        "Ġm",
        "y"
      ],
      [
        "Ġ",
        "S"
      ],
      [
        "Ġs",
        "o"
      ],
      [
        "re",
        "d"
      ],
      [
        "Ġf",
        "r"
      ],
      [
        "es",
        "s"
      ],
      [
        "Ġ",
        "A"
      ],
      [
        "Ġs",
        "u"
      ],
      [
        ".",
        "\""
      ],
      [
        "o",
        "re"
      ],
      [
        "Ġsa",
        "id"
      ],
      [
        "a",
        "ll"
      ],
      [
        "Ġha",
        "ve"
      ],
      [
        "r",
        "o"
      ],
      [
        "Ġ",
        "k"
      ],
      [
        "c",
        "k"
      ],
      [
        "i",
        "l"
      ],
      [
        "om",
        "e"
      ],
      [
        "ic",
        "h"
      ],
      [
        "a",
        "nd"
      ],
      [
        "Ġb",
        "ut"
      ],
      [
        "ar",
        "d"
      ],
      [
        "Ġa",
        "ll"
      ],
      [
        "Ġd",
        "e"
      ],
      [
        "Ġu",
        "p"
      ],
      [
        "p",
        "e"
      ],
      [
        "Ġn",
        "e"
      ],
      [
        "Ġ",
        "B"
      ],
      [
        ",",
        "\""
      ],
      [
        "g",
        "e"
      ],
      [
        "t",
        "h"
      ],
      [
        "Ġb",
        "y"
      ],
      [
        "Ġwh",
        "ich"
      ],
      [
        "q",
        "u"
      ],
      [
        "r",
        "i"
      ],
      [
        "ĠT",
        "he"
      ],
      [
        "Ġw",
        "he"
      ],
      [
        "r",
        "a"
      ],
      [
        "u",
        "l"
      ],
      [
        "Ġwe",
        "re"
      ],
      [
        "Ġthe",
        "y"
      ],
      [
        "Ġc",
        "on"
      ],
      [
        "Ġd",
        "o"
      ],
      [
        "i",
        "e"
      ],
      [
        "ver",
        "y"
      ],
      [
        "Ġfr",
        "om"
      ],
      [
        "l",
        "f"
      ],
      [
        "Ġ",
        "C"
      ],
      [
        "an",
        "t"
      ],
      [
        "Ġth",
        "is"
      ],
      [
        "p",
        "p"
      ],
      [
        "b",
        "le"
      ],
      [
        "Ġm",
        "an"
      ],
      [
        "Ġ",
        "W"
      ],
      [
        "Ġn",
        "o"
      ],
      [
        "Ġk",
        "n"
      ],
      [
        "es",
        "t"
      ],
      [
        "Ġo",
        "r"
      ],
      [
        "u",
        "st"
      ],
      [
        "Ġf",
        "e"
      ],
      [
        "in",
        "d"
      ],
      [
        "Ġl",
        "i"
      ],
      [
        "re",
        "s"
      ],
      [
        "Ġc",
        "h"
      ],
      [
        "oo",
        "d"
      ],
      [
        "as",
        "t"
      ],
      [
        "Ġw",
        "ould"
      ],
      [
        "Ġ",
        "v"
      ],
      [
        "ou",
        "s"
      ],
      [
        "Ġe",
        "x"
      ],
      [
        "u",
        "s"
      ],
      [
        "u",
        "n"
      ],
      [
        "Ġthe",
        "m"
      ],
      [
        "Ġwh",
        "o"
      ],
      [
        "ou",
        "t"
      ],
      [
        "ar",
        "t"
      ],
      [
        "ou",
        "r"
      ],
      [
        "Ġon",
        "e"
      ],
      [
        "on",
        "g"
      ],
      [
        "e",
        "m"
      ],
      [
        "Ġa",
        "l"
      ],
      [
        "Ġin",
        "t"
      ],
      [
        "oo",
        "k"
      ],
      [
        "ou",
        "gh"
      ],
      [
        "at",
        "ion"
      ],
      [
        "ou",
        "nd"
      ],
      [
        "Ġbe",
        "en"
      ],
      [
        "er",
        "s"
      ],
      [
        "Ġo",
        "ut"
      ],
      [
        "it",
        "t"
      ],
      [
        "a",
        "k"
      ],
      [
        "Ġa",
        "b"
      ],
      [
        "l",
        "a"
      ],
      [
        "at",
        "e"
      ],
      [
        "is",
        "t"
      ],
      [
        "o",
        "s"
      ],
      [
        "Ġl",
        "e"
      ],
      [
        "Ġthe",
        "ir"
      ],
      [
        "Ġthe",
        "re"
      ],
      [
        "se",
        "lf"
      ],
      [
        "on",
        "e"
      ],
      [
        "'",
        "t"
      ],
      [
        "Ġw",
        "or"
      ],
      [
        "Ġ",
        "D"
      ],
      [
        "n",
        "t"
      ],
      [
        "a",
        "p"
      ],
      [
        "ow",
        "n"
      ],
      [
        "ĠH",
        "e"
      ],
      [
        "Ġc",
        "om"
      ],
      [
        "Ġc",
        "ould"
      ],
      [
        "Ġwhe",
        "n"
      ],
      [
        "Ġ",
        "L"
      ],
      [
        "Ġ",
        "if"
      ],
      [
        "i",
        "g"
      ],
      [
        "u",
        "m"
      ],
      [
        "am",
        "e"
      ],
      [
        "r",
        "y"
      ],
      [
        "Ġ",
        "P"
      ],
      [
        "v",
        "en"
      ],
      [
        "Ġ",
        "G"
      ],
      [
        "o",
        "l"
      ],
      [
        "e",
        "ll"
      ],
      [
        "re",
        "at"
      ],
      [
        "ĠM",
        "r"
      ],
      [
        "Ġa",
        "g"
      ],
      [
        "?",
        "\""
      ],
      [
        "Ġg",
        "o"
      ],
      [
        "Ġm",
        "ore"
      ],
      [
        "e",
        "l"
      ],
      [
        "Ġa",
        "re"
      ],
      [
        "Ġyou",
        "r"
      ],
      [
        "Ġan",
        "y"
      ],
      [
        "Ġ",
        "j"
      ],
      [
        "t",
        "her"
      ],
      [
        "Ġ",
        "very"
      ],
      [
        "Ġf",
        "a"
      ],
      [
        "T",
        "he"
      ],
      [
        "Ġwh",
        "at"
      ],
      [
        "Ġu",
        "n"
      ],
      [
        "Ġw",
        "ill"
      ],
      [
        "Ġ",
        "E"
      ],
      [
        "id",
        "e"
      ],
      [
        "Ġ",
        "qu"
      ],
      [
        "a",
        "ke"
      ],
      [
        "i",
        "ve"
      ],
      [
        "Ġa",
        "f"
      ],
      [
        "he",
        "d"
      ],
      [
        "o",
        "st"
      ],
      [
        "or",
        "t"
      ],
      [
        "Ġl",
        "ook"
      ],
      [
        "o",
        "nd"
      ],
      [
        "u",
        "re"
      ],
      [
        "Ġt",
        "im"
      ],
      [
        "Ġli",
        "ke"
      ],
      [
        "itt",
        "le"
      ],
      [
        "Ġa",
        "m"
      ],
      [
        "Ġkn",
        "ow"
      ],
      [
        "a",
        "u"
      ],
      [
        "e",
        "p"
      ],
      [
        "Ġs",
        "p"
      ],
      [
        "Ġint",
        "o"
      ],
      [
        "Ġs",
        "ome"
      ],
      [
        "it",
        "y"
      ],
      [
        "Ġth",
        "an"
      ],
      [
        "o",
        "se"
      ],
      [
        "a",
        "g"
      ],
      [
        "Ġ",
        "F"
      ],
      [
        "Ġl",
        "ittle"
      ],
      [
        "o",
        "d"
      ],
      [
        "Ġb",
        "r"
      ],
      [
        "h",
        "ing"
      ],
      [
        "in",
        "k"
      ],
      [
        "w",
        "ay"
      ],
      [
        "Ġ",
        "'"
      ],
      [
        "Ġc",
        "an"
      ],
      [
        "an",
        "ce"
      ],
      [
        "Ġt",
        "r"
      ],
      [
        "ou",
        "ght"
      ],
      [
        "p",
        "t"
      ],
      [
        "ur",
        "n"
      ],
      [
        "Ġa",
        "r"
      ],
      [
        "v",
        "ed"
      ],
      [
        "a",
        "re"
      ],
      [
        "w",
        "n"
      ],
      [
        "Ġto",
        "o"
      ],
      [
        "Ġp",
        "ro"
      ],
      [
        "it",
        "e"
      ],
      [
        "ic",
        "k"
      ],
      [
        "Ġd",
        "id"
      ],
      [
        "at",
        "her"
      ],
      [
        "Ġab",
        "out"
      ],
      [
        "Ġu",
        "s"
      ],
      [
        "!",
        "\""
      ],
      [
        "ot",
        "her"
      ],
      [
        "Ġs",
        "ay"
      ],
      [
        "o",
        "p"
      ],
      [
        "Ġ",
        "en"
      ],
      [
        "a",
        "ble"
      ],
      [
        "n",
        "g"
      ],
      [
        "Ġn",
        "ow"
      ],
      [
        "ic",
        "e"
      ],
      [
        "e",
        "ct"
      ],
      [
        "Ġo",
        "ther"
      ],
      [
        "ad",
        "e"
      ],
      [
        "as",
        "s"
      ],
      [
        "Ġse",
        "e"
      ],
      [
        "Ġag",
        "ain"
      ],
      [
        "Ġup",
        "on"
      ],
      [
        "e",
        "red"
      ],
      [
        "u",
        "d"
      ],
      [
        "Ġ",
        "R"
      ],
      [
        "Ġtim",
        "e"
      ],
      [
        "f",
        "ore"
      ],
      [
        "is",
        "h"
      ],
      [
        "a",
        "ck"
      ],
      [
        "in",
        "e"
      ],
      [
        "en",
        "ce"
      ],
      [
        "ing",
        "s"
      ],
      [
        "h",
        "at"
      ],
      [
        "Ġha",
        "nd"
      ],
      [
        "c",
        "c"
      ],
      [
        "Ġsh",
        "ould"
      ],
      [
        "Ġ",
        "N"
      ],
      [
        "i",
        "es"
      ],
      [
        "Ġt",
        "w"
      ],
      [
        "ĠB",
        "ut"
      ],
      [
        "Ġd",
        "is"
      ],
      [
        "Ġ",
        "J"
      ],
      [
        "Ġo",
        "ver"
      ],
      [
        "Ġg",
        "r"
      ],
      [
        "nd",
        "er"
      ],
      [
        "Ġ",
        "im"
      ],
      [
        "Ġd",
        "own"
      ],
      [
        "ĠI",
        "t"
      ],
      [
        "a",
        "b"
      ],
      [
        "Ġp",
        "r"
      ],
      [
        "u",
        "ch"
      ],
      [
        "Ġg",
        "ood"
      ],
      [
        "o",
        "ve"
      ],
      [
        "Ġc",
        "l"
      ],
      [
        "Ġthe",
        "n"
      ],
      [
        "v",
        "ing"
      ],
      [
        "a",
        "c"
      ],
      [
        "Ġ",
        "O"
      ],
      [
        "i",
        "ous"
      ],
      [
        "res",
        "s"
      ],
      [
        "Ġg",
        "reat"
      ],
      [
        "Ġr",
        "o"
      ],
      [
        "w",
        "ard"
      ],
      [
        "a",
        "ge"
      ],
      [
        "or",
        "d"
      ],
      [
        "m",
        "ent"
      ],
      [
        "n",
        "ess"
      ],
      [
        "Ġne",
        "ver"
      ],
      [
        "Ġa",
        "d"
      ],
      [
        "Ġd",
        "ay"
      ],
      [
        "i",
        "le"
      ],
      [
        "Ġbe",
        "fore"
      ],
      [
        "Ġth",
        "ink"
      ],
      [
        "ou",
        "nt"
      ],
      [
        "Ġp",
        "o"
      ],
      [
        "all",
        "y"
      ],
      [
        "u",
        "e"
      ],
      [
        "Ġon",
        "ly"
      ],
      [
        "Ġo",
        "wn"
      ],
      [
        "Ġm",
        "ust"
      ],
      [
        "Ġm",
        "uch"
      ],
      [
        "er",
        "t"
      ],
      [
        "ad",
        "y"
      ],
      [
        "ĠA",
        "nd"
      ],
      [
        "Ġaf",
        "ter"
      ],
      [
        "i",
        "re"
      ],
      [
        "Ġm",
        "ade"
      ],
      [
        "k",
        "ed"
      ],
      [
        "n",
        "e"
      ],
      [
        "Ġo",
        "ur"
      ],
      [
        "Y",
        "ou"
      ],
      [
        "Ġo",
        "ld"
      ],
      [
        "Ġh",
        "ow"
      ],
      [
        "p",
        "l"
      ],
      [
        "Ġsu",
        "ch"
      ],
      [
        "an",
        "g"
      ],
      [
        "ar",
        "s"
      ],
      [
        "u",
        "ll"
      ],
      [
        "re",
        "e"
      ],
      [
        "Ġof",
        "f"
      ],
      [
        "f",
        "ul"
      ],
      [
        "Ġh",
        "as"
      ],
      [
        "Ġm",
        "ight"
      ],
      [
        "Ġl",
        "ong"
      ],
      [
        "Ġw",
        "ay"
      ],
      [
        "Ġp",
        "er"
      ],
      [
        "Ġst",
        "r"
      ],
      [
        "l",
        "ed"
      ],
      [
        "if",
        "e"
      ],
      [
        "i",
        "ed"
      ],
      [
        "i",
        "ld"
      ],
      [
        "Ġth",
        "ought"
      ],
      [
        "Ġc",
        "ame"
      ],
      [
        "Ġp",
        "re"
      ],
      [
        "Ġth",
        "r"
      ],
      [
        "Ġs",
        "c"
      ],
      [
        "Ġc",
        "ome"
      ],
      [
        "Ġe",
        "y"
      ],
      [
        "Ġp",
        "art"
      ],
      [
        "Ġbe",
        "t"
      ],
      [
        "Ġp",
        "e"
      ],
      [
        "Ġe",
        "very"
      ],
      [
        "Ġb",
        "l"
      ],
      [
        "f",
        "f"
      ],
      [
        "e",
        "re"
      ],
      [
        "p",
        "er"
      ],
      [
        "Ġf",
        "l"
      ],
      [
        "Ġu",
        "nder"
      ],
      [
        "Ġs",
        "m"
      ],
      [
        "Ġse",
        "em"
      ],
      [
        "ar",
        "y"
      ],
      [
        "v",
        "es"
      ],
      [
        "a",
        "ch"
      ],
      [
        "o",
        "y"
      ],
      [
        "or",
        "n"
      ],
      [
        "t",
        "y"
      ],
      [
        "Ġwe",
        "ll"
      ],
      [
        "Ġe",
        "ven"
      ],
      [
        "Ġb",
        "ack"
      ],
      [
        "Ġhim",
        "self"
      ],
      [
        "i",
        "p"
      ],
      [
        "Ġre",
        "m"
      ],
      [
        "ĠS",
        "he"
      ],
      [
        "Ġf",
        "ir"
      ],
      [
        "ion",
        "s"
      ],
      [
        "Ġwhe",
        "re"
      ],
      [
        "Ġtw",
        "o"
      ],
      [
        "ri",
        "ed"
      ],
      [
        "m",
        "an"
      ],
      [
        "is",
        "s"
      ],
      [
        "Ġp",
        "l"
      ],
      [
        "a",
        "ve"
      ],
      [
        "o",
        "ll"
      ],
      [
        "Ġit",
        "s"
      ],
      [
        "at",
        "ed"
      ],
      [
        "w",
        "e"
      ],
      [
        "Ġs",
        "pe"
      ],
      [
        "e",
        "w"
      ],
      [
        "o",
        "ld"
      ],
      [
        "Ġbe",
        "g"
      ],
      [
        "an",
        "c"
      ],
      [
        "at",
        "h"
      ],
      [
        "Ġg",
        "l"
      ],
      [
        "f",
        "t"
      ],
      [
        "i",
        "ly"
      ],
      [
        "ar",
        "k"
      ],
      [
        "is",
        "e"
      ],
      [
        "Ġw",
        "ent"
      ],
      [
        "Ġbe",
        "c"
      ],
      [
        "ou",
        "se"
      ],
      [
        "Ġfir",
        "st"
      ],
      [
        "Ġp",
        "la"
      ],
      [
        "Ġbe",
        "ing"
      ],
      [
        "Ġa",
        "way"
      ],
      [
        "Ġo",
        "b"
      ],
      [
        "Ġd",
        "es"
      ],
      [
        "Ġm",
        "ay"
      ],
      [
        "m",
        "e"
      ],
      [
        "Ġt",
        "urn"
      ],
      [
        "Ġyou",
        "ng"
      ],
      [
        "Ġre",
        "s"
      ],
      [
        "Ġy",
        "e"
      ],
      [
        "Ġcon",
        "t"
      ],
      [
        "in",
        "t"
      ],
      [
        "Ġhe",
        "ad"
      ],
      [
        "Ġm",
        "ake"
      ],
      [
        "Ġin",
        "d"
      ],
      [
        "Ġ",
        "ke"
      ],
      [
        "Ġj",
        "ust"
      ],
      [
        "om",
        "et"
      ],
      [
        "Ġey",
        "es"
      ],
      [
        "Ġg",
        "et"
      ],
      [
        "Ġp",
        "ass"
      ],
      [
        "Ġcom",
        "p"
      ],
      [
        "Ġhe",
        "re"
      ],
      [
        "he",
        "n"
      ],
      [
        "en",
        "ed"
      ],
      [
        "b",
        "er"
      ],
      [
        "Ġl",
        "et"
      ],
      [
        "o",
        "ck"
      ],
      [
        "Ġthe",
        "se"
      ],
      [
        ",",
        "'"
      ],
      [
        "Ġl",
        "ast"
      ],
      [
        "a",
        "ir"
      ],
      [
        "Ġthr",
        "ough"
      ],
      [
        "Ġwith",
        "out"
      ],
      [
        "ig",
        "n"
      ],
      [
        "al",
        "k"
      ],
      [
        "pe",
        "ct"
      ],
      [
        "Ġbe",
        "l"
      ],
      [
        "Ġm",
        "en"
      ],
      [
        "i",
        "gh"
      ],
      [
        "os",
        "s"
      ],
      [
        "l",
        "ess"
      ],
      [
        "Ġwor",
        "d"
      ],
      [
        "Ġat",
        "t"
      ],
      [
        "Ġw",
        "om"
      ],
      [
        "Ġo",
        "p"
      ],
      [
        "au",
        "se"
      ],
      [
        "ar",
        "m"
      ],
      [
        ".",
        "'"
      ],
      [
        "Ġth",
        "ough"
      ],
      [
        "Ġim",
        "p"
      ],
      [
        "Ġt",
        "ell"
      ],
      [
        "Ġlook",
        "ed"
      ],
      [
        "Ġm",
        "ost"
      ],
      [
        "Ġs",
        "omet"
      ],
      [
        "s",
        "w"
      ],
      [
        "Ġc",
        "all"
      ],
      [
        "Ġcon",
        "s"
      ],
      [
        "ot",
        "h"
      ],
      [
        "i",
        "an"
      ],
      [
        "Ġw",
        "at"
      ],
      [
        "op",
        "le"
      ],
      [
        "Ġe",
        "ver"
      ],
      [
        "I",
        "t"
      ],
      [
        "Ġsh",
        "all"
      ],
      [
        "Ġl",
        "ife"
      ],
      [
        "ie",
        "nd"
      ],
      [
        "le",
        "as"
      ],
      [
        "Ġa",
        "p"
      ],
      [
        "ak",
        "ing"
      ],
      [
        "Ġd",
        "on"
      ],
      [
        "Ġa",
        "cc"
      ],
      [
        "Ġf",
        "ound"
      ],
      [
        "Ġm",
        "ind"
      ],
      [
        "Ġfa",
        "ce"
      ],
      [
        "Ġnot",
        "hing"
      ],
      [
        "Ġ",
        "K"
      ],
      [
        "Ġre",
        "t"
      ],
      [
        "if",
        "f"
      ],
      [
        "Ġfr",
        "iend"
      ],
      [
        "Ġw",
        "ant"
      ],
      [
        "Ġseem",
        "ed"
      ],
      [
        "Ġf",
        "ather"
      ],
      [
        "Ġsa",
        "w"
      ],
      [
        "Ġst",
        "ill"
      ],
      [
        "on",
        "s"
      ],
      [
        "Ġs",
        "l"
      ],
      [
        "Ġth",
        "ings"
      ],
      [
        "Ġh",
        "ouse"
      ],
      [
        "c",
        "i"
      ],
      [
        "Ġp",
        "res"
      ],
      [
        "a",
        "red"
      ],
      [
        "he",
        "s"
      ],
      [
        "Ġ",
        "_"
      ],
      [
        "Ġwh",
        "ile"
      ],
      [
        "l",
        "ing"
      ],
      [
        "Ġth",
        "ing"
      ],
      [
        "r",
        "ow"
      ],
      [
        "Ġp",
        "ut"
      ],
      [
        "th",
        "ing"
      ],
      [
        "Ġ",
        "ent"
      ],
      [
        "g",
        "et"
      ],
      [
        "ĠT",
        "h"
      ],
      [
        "l",
        "es"
      ],
      [
        "ĠMr",
        "s"
      ],
      [
        "Ġth",
        "ose"
      ],
      [
        "Ġt",
        "e"
      ],
      [
        "t",
        "ing"
      ],
      [
        "om",
        "ent"
      ],
      [
        "Ġy",
        "et"
      ],
      [
        "i",
        "z"
      ],
      [
        "Ġm",
        "oment"
      ],
      [
        "Ġman",
        "y"
      ],
      [
        "Ġch",
        "ild"
      ],
      [
        "t",
        "ed"
      ],
      [
        "Ġpe",
        "ople"
      ],
      [
        "Ġn",
        "ight"
      ],
      [
        "way",
        "s"
      ],
      [
        "Ġt",
        "ake"
      ],
      [
        "Ġc",
        "ar"
      ],
      [
        "Ġfe",
        "el"
      ],
      [
        "Ġe",
        "nd"
      ],
      [
        "Ġw",
        "r"
      ],
      [
        "od",
        "y"
      ],
      [
        "c",
        "ed"
      ],
      [
        "Ġm",
        "ar"
      ],
      [
        "re",
        "n"
      ],
      [
        "e",
        "ver"
      ],
      [
        "Ġg",
        "ent"
      ],
      [
        "Ġhe",
        "art"
      ],
      [
        "'",
        "ll"
      ],
      [
        "or",
        "y"
      ],
      [
        "t",
        "he"
      ],
      [
        "Ġg",
        "ot"
      ],
      [
        "Ġpla",
        "ce"
      ],
      [
        "at",
        "ter"
      ],
      [
        "H",
        "e"
      ],
      [
        "Ġr",
        "ight"
      ],
      [
        "i",
        "ble"
      ],
      [
        "Ġa",
        "pp"
      ],
      [
        "or",
        "s"
      ],
      [
        "o",
        "b"
      ],
      [
        "Ġme",
        "an"
      ],
      [
        "c",
        "l"
      ],
      [
        "Ġon",
        "ce"
      ],
      [
        "Ġ",
        "You"
      ],
      [
        "Ġd",
        "ist"
      ],
      [
        "Ġe",
        "ar"
      ],
      [
        "l",
        "and"
      ],
      [
        "Ġkn",
        "ew"
      ],
      [
        "g",
        "g"
      ],
      [
        "Ġan",
        "sw"
      ],
      [
        "Ġha",
        "pp"
      ],
      [
        "Ġal",
        "ways"
      ],
      [
        "ow",
        "ed"
      ],
      [
        "Ġen",
        "ough"
      ],
      [
        "A",
        "nd"
      ],
      [
        "an",
        "k"
      ],
      [
        "Ġc",
        "our"
      ],
      [
        "ĠC",
        "h"
      ],
      [
        "Ġ",
        "("
      ],
      [
        "Ġp",
        "leas"
      ],
      [
        "B",
        "ut"
      ],
      [
        "Ġtoo",
        "k"
      ],
      [
        "Ġs",
        "et"
      ],
      [
        "in",
        "ce"
      ],
      [
        "Ġhe",
        "ard"
      ],
      [
        "u",
        "ck"
      ],
      [
        "Ġc",
        "ount"
      ],
      [
        "Ġan",
        "other"
      ],
      [
        "n",
        "er"
      ],
      [
        "Ġcom",
        "m"
      ],
      [
        "Ġ",
        "V"
      ],
      [
        "Ġa",
        "c"
      ],
      [
        "t",
        "e"
      ],
      [
        "Ġle",
        "ft"
      ],
      [
        "Ġfe",
        "ll"
      ],
      [
        "l",
        "t"
      ],
      [
        "it",
        "her"
      ],
      [
        "Ġne",
        "w"
      ],
      [
        "Ġl",
        "ove"
      ],
      [
        "Ġs",
        "er"
      ],
      [
        "ert",
        "ain"
      ],
      [
        "Ġqu",
        "ite"
      ],
      [
        "a",
        "w"
      ],
      [
        "i",
        "v"
      ],
      [
        "re",
        "w"
      ],
      [
        "Ġbet",
        "ter"
      ],
      [
        "en",
        "s"
      ],
      [
        "r",
        "u"
      ],
      [
        "Ġd",
        "one"
      ],
      [
        "Ġs",
        "at"
      ],
      [
        "an",
        "ge"
      ],
      [
        "Ġm",
        "other"
      ],
      [
        "Ġl",
        "ight"
      ],
      [
        "Ġsu",
        "pp"
      ],
      [
        "a",
        "v"
      ],
      [
        "Ġhand",
        "s"
      ],
      [
        "Ġsa",
        "me"
      ],
      [
        "ĠThe",
        "y"
      ],
      [
        "h",
        "y"
      ],
      [
        "Ġk",
        "ind"
      ],
      [
        "ap",
        "s"
      ],
      [
        "Ġsomet",
        "hing"
      ],
      [
        "Ġar",
        "m"
      ],
      [
        "d",
        "en"
      ],
      [
        "Ġp",
        "ers"
      ],
      [
        "Ġwor",
        "ld"
      ],
      [
        "re",
        "t"
      ],
      [
        "s",
        "h"
      ],
      [
        "Ġwom",
        "an"
      ],
      [
        "f",
        "or"
      ],
      [
        "Ġpo",
        "or"
      ],
      [
        "au",
        "ght"
      ],
      [
        "is",
        "hed"
      ],
      [
        "Ġdo",
        "or"
      ],
      [
        "pp",
        "ed"
      ],
      [
        "ĠThe",
        "re"
      ],
      [
        "it",
        "ion"
      ],
      [
        "Ġl",
        "o"
      ],
      [
        "in",
        "ess"
      ],
      [
        "Ġs",
        "w"
      ],
      [
        "Ġb",
        "o"
      ],
      [
        "c",
        "hed"
      ],
      [
        "Ġto",
        "ld"
      ],
      [
        "Ġgo",
        "ing"
      ],
      [
        "j",
        "ect"
      ],
      [
        "i",
        "x"
      ],
      [
        "Ġwor",
        "k"
      ],
      [
        "Ġre",
        "c"
      ],
      [
        "s",
        "s"
      ],
      [
        "Ġgent",
        "le"
      ],
      [
        "Ġw",
        "a"
      ],
      [
        "Ġap",
        "pe"
      ],
      [
        "Ġin",
        "st"
      ],
      [
        "Ġf",
        "ind"
      ],
      [
        "Ġso",
        "on"
      ],
      [
        "n",
        "ing"
      ],
      [
        "Ġha",
        "lf"
      ],
      [
        "Ġh",
        "ome"
      ],
      [
        "ĠS",
        "t"
      ],
      [
        "Ġw",
        "ind"
      ],
      [
        "Ġh",
        "o"
      ],
      [
        "as",
        "ter"
      ],
      [
        "Ġs",
        "ide"
      ],
      [
        "c",
        "es"
      ],
      [
        "m",
        "er"
      ],
      [
        "Ġre",
        "p"
      ],
      [
        "Ġr",
        "ound"
      ],
      [
        "Ġse",
        "en"
      ],
      [
        "se",
        "l"
      ],
      [
        "Ġro",
        "om"
      ],
      [
        "Ġh",
        "ard"
      ],
      [
        "Ġg",
        "ive"
      ],
      [
        "ent",
        "ly"
      ],
      [
        "ward",
        "s"
      ],
      [
        "u",
        "b"
      ],
      [
        "u",
        "nd"
      ],
      [
        "Ġc",
        "o"
      ],
      [
        "Ġher",
        "self"
      ],
      [
        "Ġde",
        "l"
      ],
      [
        "as",
        "e"
      ],
      [
        "Ġth",
        "ree"
      ],
      [
        "i",
        "b"
      ],
      [
        "Ġse",
        "c"
      ],
      [
        "Ġs",
        "il"
      ],
      [
        "Ġbel",
        "ie"
      ],
      [
        "m",
        "ost"
      ],
      [
        "a",
        "ce"
      ],
      [
        "ul",
        "t"
      ],
      [
        "Ġret",
        "urn"
      ],
      [
        "Ġn",
        "at"
      ],
      [
        "Ġbeg",
        "an"
      ],
      [
        "Ġf",
        "ar"
      ],
      [
        "a",
        "ut"
      ],
      [
        "ct",
        "ion"
      ],
      [
        "oo",
        "l"
      ],
      [
        "e",
        "ed"
      ],
      [
        "ir",
        "l"
      ],
      [
        "Ġsu",
        "re"
      ],
      [
        "Ġv",
        "o"
      ],
      [
        "ĠI",
        "n"
      ],
      [
        "ĠM",
        "iss"
      ],
      [
        "Ġagain",
        "st"
      ],
      [
        "a",
        "id"
      ],
      [
        "en",
        "er"
      ],
      [
        "Ġs",
        "ur"
      ],
      [
        "Ġha",
        "ving"
      ],
      [
        "Ġf",
        "oll"
      ],
      [
        "ic",
        "t"
      ],
      [
        "Ġbec",
        "ause"
      ],
      [
        "Ġe",
        "m"
      ],
      [
        "ot",
        "t"
      ],
      [
        "Ġl",
        "ady"
      ],
      [
        "Ġas",
        "ked"
      ],
      [
        "h",
        "aps"
      ],
      [
        "f",
        "ect"
      ],
      [
        "ow",
        "er"
      ],
      [
        "Ġmy",
        "self"
      ],
      [
        "in",
        "ed"
      ],
      [
        "Ġne",
        "ar"
      ],
      [
        "ation",
        "s"
      ],
      [
        "Ġturn",
        "ed"
      ],
      [
        "Ġc",
        "le"
      ],
      [
        "Ġfe",
        "lt"
      ],
      [
        "Ġcon",
        "f"
      ],
      [
        "i",
        "red"
      ],
      [
        "Ġd",
        "iff"
      ],
      [
        "ce",
        "pt"
      ],
      [
        "ain",
        "ed"
      ],
      [
        ".",
        "."
      ],
      [
        "Ġre",
        "st"
      ],
      [
        "Ġst",
        "ood"
      ],
      [
        "Ġam",
        "ong"
      ],
      [
        "x",
        "t"
      ],
      [
        "Ġex",
        "p"
      ],
      [
        "Ġc",
        "ur"
      ],
      [
        "s",
        "o"
      ],
      [
        "ou",
        "b"
      ],
      [
        "Ġde",
        "ar"
      ],
      [
        "Ġb",
        "oy"
      ],
      [
        "Ġke",
        "ep"
      ],
      [
        "get",
        "her"
      ],
      [
        "Ġbe",
        "h"
      ],
      [
        "Ġsu",
        "b"
      ],
      [
        "Ġg",
        "irl"
      ],
      [
        "a",
        "il"
      ],
      [
        "Ġg",
        "i"
      ],
      [
        "Ġr",
        "ather"
      ],
      [
        "Ġf",
        "am"
      ],
      [
        "a",
        "le"
      ],
      [
        "we",
        "en"
      ],
      [
        "Ġp",
        "oss"
      ],
      [
        "i",
        "ver"
      ],
      [
        "m",
        "ed"
      ],
      [
        "ro",
        "ss"
      ],
      [
        "ak",
        "en"
      ],
      [
        "Ġhe",
        "l"
      ],
      [
        "c",
        "ess"
      ],
      [
        "ĠW",
        "e"
      ],
      [
        "Ġo",
        "cc"
      ],
      [
        "Ġb",
        "re"
      ],
      [
        "Ġc",
        "are"
      ],
      [
        "n",
        "ot"
      ],
      [
        "ow",
        "s"
      ],
      [
        "Ġc",
        "he"
      ],
      [
        "en",
        "se"
      ],
      [
        "u",
        "al"
      ],
      [
        "Ġg",
        "u"
      ],
      [
        "Ġhe",
        "ar"
      ],
      [
        "e",
        "nd"
      ],
      [
        "Ġt",
        "re"
      ],
      [
        "Ġh",
        "or"
      ],
      [
        "Ġs",
        "ir"
      ],
      [
        "ra",
        "w"
      ],
      [
        "un",
        "g"
      ],
      [
        "Ġh",
        "our"
      ],
      [
        "Ġst",
        "re"
      ],
      [
        "Ġm",
        "orn"
      ],
      [
        "v",
        "ent"
      ],
      [
        "Ġbet",
        "ween"
      ],
      [
        "u",
        "p"
      ],
      [
        "Ġfe",
        "w"
      ],
      [
        "Ġt",
        "ill"
      ],
      [
        "Ġt",
        "alk"
      ],
      [
        "o",
        "ke"
      ],
      [
        "Ġre",
        "l"
      ],
      [
        "ull",
        "y"
      ],
      [
        "Ġdis",
        "c"
      ],
      [
        "is",
        "ed"
      ],
      [
        "ul",
        "ar"
      ],
      [
        "i",
        "a"
      ],
      [
        "Ġye",
        "ars"
      ],
      [
        "Ġg",
        "ave"
      ],
      [
        "er",
        "ing"
      ],
      [
        "Ġlook",
        "ing"
      ],
      [
        "as",
        "on"
      ],
      [
        "Ġn",
        "or"
      ],
      [
        "Ġre",
        "ad"
      ],
      [
        "it",
        "ed"
      ],
      [
        "Ġm",
        "o"
      ],
      [
        "ĠE",
        "ng"
      ],
      [
        "Ġb",
        "us"
      ],
      [
        "ra",
        "ve"
      ],
      [
        "er",
        "y"
      ],
      [
        "'",
        "ve"
      ],
      [
        "ap",
        "t"
      ],
      [
        "Ġcour",
        "se"
      ],
      [
        "he",
        "re"
      ],
      [
        "E",
        "R"
      ],
      [
        "Ġe",
        "ach"
      ],
      [
        "W",
        "hat"
      ],
      [
        "Ġmorn",
        "ing"
      ],
      [
        "e",
        "k"
      ],
      [
        "Ġvo",
        "ice"
      ],
      [
        "Ġn",
        "ame"
      ],
      [
        "?",
        "'"
      ],
      [
        "ou",
        "d"
      ],
      [
        "Ġ",
        "Y"
      ],
      [
        "Ġc",
        "ertain"
      ],
      [
        "Ġc",
        "r"
      ],
      [
        "Ġb",
        "est"
      ],
      [
        "--",
        "\""
      ],
      [
        "am",
        "p"
      ],
      [
        "Ġin",
        "ter"
      ],
      [
        "Ġany",
        "thing"
      ],
      [
        "Ġe",
        "l"
      ],
      [
        "Ġh",
        "um"
      ],
      [
        "b",
        "e"
      ],
      [
        "Ġw",
        "ond"
      ],
      [
        "Ġas",
        "s"
      ],
      [
        "Ġwho",
        "le"
      ],
      [
        "Ġwh",
        "om"
      ],
      [
        "Ġor",
        "d"
      ],
      [
        "T",
        "h"
      ],
      [
        "Ġc",
        "ried"
      ],
      [
        "u",
        "res"
      ],
      [
        "Ġa",
        "w"
      ],
      [
        "Ġd",
        "re"
      ],
      [
        "Ġword",
        "s"
      ],
      [
        "Ġad",
        "d"
      ],
      [
        "Ġm",
        "in"
      ],
      [
        "o",
        "ot"
      ],
      [
        "Ġd",
        "r"
      ],
      [
        "Ġin",
        "s"
      ],
      [
        "i",
        "er"
      ],
      [
        "i",
        "et"
      ],
      [
        "'",
        "d"
      ],
      [
        "Ġop",
        "en"
      ],
      [
        "Ġm",
        "on"
      ],
      [
        "os",
        "ed"
      ],
      [
        "Ġl",
        "ay"
      ],
      [
        "Ġh",
        "on"
      ],
      [
        "Ġre",
        "g"
      ],
      [
        "Ġal",
        "most"
      ],
      [
        "Ġm",
        "atter"
      ],
      [
        "ar",
        "ge"
      ],
      [
        "ut",
        "e"
      ],
      [
        "Ġd",
        "ark"
      ],
      [
        "is",
        "ter"
      ],
      [
        "Ġg",
        "one"
      ],
      [
        "at",
        "ing"
      ],
      [
        "S",
        "he"
      ],
      [
        "sel",
        "ves"
      ],
      [
        "Ġst",
        "e"
      ],
      [
        "it",
        "s"
      ],
      [
        "Ġb",
        "ro"
      ],
      [
        "la",
        "ck"
      ],
      [
        "Ġp",
        "ur"
      ],
      [
        "Ġf",
        "ore"
      ],
      [
        "er",
        "n"
      ],
      [
        "Ġind",
        "eed"
      ],
      [
        "'",
        "m"
      ],
      [
        "Ġa",
        "ir"
      ],
      [
        "g",
        "ed"
      ],
      [
        "ar",
        "n"
      ],
      [
        "ow",
        "ing"
      ],
      [
        "Ġre",
        "f"
      ],
      [
        "ud",
        "e"
      ],
      [
        "Ġb",
        "oth"
      ],
      [
        "Ġpo",
        "int"
      ],
      [
        "Ġbe",
        "aut"
      ],
      [
        "Ġday",
        "s"
      ],
      [
        "Ġcall",
        "ed"
      ],
      [
        "Ġne",
        "xt"
      ],
      [
        "Ġv",
        "is"
      ],
      [
        "Ġsm",
        "all"
      ],
      [
        "Ġhel",
        "p"
      ],
      [
        "Ġwat",
        "er"
      ],
      [
        "i",
        "al"
      ],
      [
        "ic",
        "al"
      ],
      [
        "Ġunder",
        "st"
      ],
      [
        "one",
        "y"
      ],
      [
        "t",
        "o"
      ],
      [
        "ain",
        "t"
      ],
      [
        "in",
        "s"
      ],
      [
        "o",
        "g"
      ],
      [
        "Ġun",
        "c"
      ],
      [
        "Ġu",
        "nt"
      ],
      [
        "Ġst",
        "and"
      ],
      [
        "Ġpres",
        "ent"
      ],
      [
        "Ġl",
        "ess"
      ],
      [
        "b",
        "ody"
      ],
      [
        "Ġsay",
        "s"
      ],
      [
        "ĠS",
        "ir"
      ],
      [
        "ĠI",
        "f"
      ],
      [
        "Ġspe",
        "ak"
      ],
      [
        "Ġbr",
        "ought"
      ],
      [
        "Ġa",
        "ct"
      ],
      [
        "p",
        "s"
      ],
      [
        "an",
        "s"
      ],
      [
        "!",
        "'"
      ],
      [
        "Ġs",
        "k"
      ],
      [
        "O",
        "h"
      ],
      [
        "d",
        "den"
      ],
      [
        "b",
        "ut"
      ],
      [
        "Ġansw",
        "ered"
      ],
      [
        "ĠThe",
        "n"
      ],
      [
        "ut",
        "h"
      ],
      [
        "Ġin",
        "c"
      ],
      [
        "Ġpers",
        "on"
      ],
      [
        "p",
        "r"
      ],
      [
        "l",
        "i"
      ],
      [
        "ate",
        "ly"
      ],
      [
        "on",
        "t"
      ],
      [
        "Ġex",
        "c"
      ],
      [
        "Ġl",
        "au"
      ],
      [
        "p",
        "le"
      ],
      [
        "Ġcount",
        "ry"
      ],
      [
        "Ġs",
        "ince"
      ],
      [
        "ĠH",
        "is"
      ],
      [
        "et",
        "h"
      ],
      [
        "Ġh",
        "igh"
      ],
      [
        "Ġl",
        "and"
      ],
      [
        "c",
        "y"
      ],
      [
        "Ġto",
        "gether"
      ],
      [
        "N",
        "o"
      ],
      [
        "f",
        "ort"
      ],
      [
        "Ġt",
        "er"
      ],
      [
        "un",
        "t"
      ],
      [
        "Ġcomp",
        "an"
      ],
      [
        "m",
        "en"
      ],
      [
        "Ġsu",
        "dden"
      ],
      [
        "Ġs",
        "ort"
      ],
      [
        "Ġho",
        "pe"
      ],
      [
        "Ġwh",
        "ite"
      ],
      [
        "Ġd",
        "oub"
      ],
      [
        "ere",
        "st"
      ],
      [
        "Ġsu",
        "n"
      ],
      [
        "s",
        "er"
      ],
      [
        "u",
        "red"
      ],
      [
        "Ġle",
        "ast"
      ],
      [
        "Ġal",
        "ong"
      ],
      [
        "ar",
        "ing"
      ],
      [
        "ĠA",
        "n"
      ],
      [
        "Ġper",
        "haps"
      ],
      [
        "W",
        "ell"
      ],
      [
        "Ġde",
        "c"
      ],
      [
        "Ġs",
        "le"
      ],
      [
        "ĠG",
        "od"
      ],
      [
        "Ġhow",
        "ever"
      ],
      [
        "Ġg",
        "ener"
      ],
      [
        "o",
        "h"
      ],
      [
        "Ġs",
        "ent"
      ],
      [
        "Ġw",
        "ife"
      ],
      [
        "at",
        "t"
      ],
      [
        "f",
        "ully"
      ],
      [
        "p",
        "h"
      ],
      [
        "th",
        "at"
      ],
      [
        "Ġbelie",
        "ve"
      ],
      [
        "ĠTh",
        "is"
      ],
      [
        "Ġm",
        "oney"
      ],
      [
        "as",
        "h"
      ],
      [
        "ress",
        "ed"
      ],
      [
        "Ġrem",
        "em"
      ],
      [
        "Ġr",
        "un"
      ],
      [
        "Ġf",
        "ull"
      ],
      [
        "a",
        "z"
      ],
      [
        "Ġad",
        "v"
      ],
      [
        "pl",
        "ied"
      ],
      [
        "Ġpass",
        "ed"
      ],
      [
        "ent",
        "ion"
      ],
      [
        "Ġt",
        "aken"
      ],
      [
        "Ġb",
        "lack"
      ],
      [
        "al",
        "ked"
      ],
      [
        "Ġl",
        "ad"
      ],
      [
        "Ġde",
        "ep"
      ],
      [
        "k",
        "en"
      ],
      [
        "Ġw",
        "ish"
      ],
      [
        "u",
        "ed"
      ],
      [
        "Ġstr",
        "ong"
      ],
      [
        "ie",
        "f"
      ],
      [
        "Y",
        "es"
      ],
      [
        "ĠW",
        "hat"
      ],
      [
        "Ġne",
        "ed"
      ],
      [
        "en",
        "e"
      ],
      [
        "y",
        "ing"
      ],
      [
        "Ġb",
        "ed"
      ],
      [
        "ĠM",
        "ar"
      ],
      [
        "Ġqu",
        "est"
      ],
      [
        "ou",
        "th"
      ],
      [
        "Ġbeh",
        "ind"
      ],
      [
        "ĠA",
        "s"
      ],
      [
        "t",
        "en"
      ],
      [
        "Ġcont",
        "in"
      ],
      [
        "Ġint",
        "erest"
      ],
      [
        "Ġf",
        "all"
      ],
      [
        "Ġdo",
        "es"
      ],
      [
        "Ġto",
        "wards"
      ],
      [
        "Ġf",
        "ire"
      ],
      [
        "Ġad",
        "m"
      ],
      [
        "ou",
        "n"
      ],
      [
        "apt",
        "ain"
      ],
      [
        "Ġgentle",
        "man"
      ],
      [
        "Ġe",
        "ff"
      ],
      [
        "ce",
        "i"
      ],
      [
        "Ġs",
        "ound"
      ],
      [
        "Ġex",
        "pect"
      ],
      [
        "an",
        "e"
      ],
      [
        "Ġre",
        "ason"
      ],
      [
        "Ġwho",
        "se"
      ],
      [
        "Ġtr",
        "ue"
      ],
      [
        "Ġpre",
        "t"
      ],
      [
        "ent",
        "s"
      ],
      [
        "Ġas",
        "k"
      ],
      [
        "ver",
        "s"
      ],
      [
        "Ġunt",
        "il"
      ],
      [
        "Ġu",
        "se"
      ],
      [
        "Ġre",
        "d"
      ],
      [
        "ĠB",
        "r"
      ],
      [
        "ĠT",
        "hat"
      ],
      [
        "Ġm",
        "is"
      ],
      [
        "ra",
        "ct"
      ],
      [
        "Ġre",
        "plied"
      ],
      [
        "Ġ",
        "U"
      ],
      [
        "Ġh",
        "old"
      ],
      [
        "Ġchild",
        "ren"
      ],
      [
        "ĠW",
        "hen"
      ],
      [
        "Ġex",
        "t"
      ],
      [
        "T",
        "hat"
      ],
      [
        "Ġfam",
        "ily"
      ],
      [
        "Ġch",
        "ar"
      ],
      [
        "ĠF",
        "or"
      ],
      [
        "ĠA",
        "l"
      ],
      [
        "Ġman",
        "ner"
      ],
      [
        "ir",
        "c"
      ],
      [
        "ab",
        "ly"
      ],
      [
        "Ġpro",
        "p"
      ],
      [
        "Ġpl",
        "ay"
      ],
      [
        "n",
        "o"
      ],
      [
        "Ġdoub",
        "t"
      ],
      [
        "u",
        "ght"
      ],
      [
        "Ġin",
        "f"
      ],
      [
        "Ġal",
        "so"
      ],
      [
        "le",
        "y"
      ],
      [
        "Ġus",
        "ed"
      ],
      [
        "Ġle",
        "ave"
      ],
      [
        "H",
        "A"
      ],
      [
        "Ġthem",
        "selves"
      ],
      [
        "us",
        "ed"
      ],
      [
        "The",
        "re"
      ],
      [
        "Ġe",
        "v"
      ],
      [
        "Ġser",
        "v"
      ],
      [
        "l",
        "ish"
      ],
      [
        "a",
        "ven"
      ],
      [
        "Ġs",
        "n"
      ],
      [
        "Ġde",
        "ad"
      ],
      [
        ",",
        "--"
      ],
      [
        "Ġlet",
        "ter"
      ],
      [
        "ang",
        "er"
      ],
      [
        "ĠD",
        "e"
      ],
      [
        "Ġw",
        "alk"
      ],
      [
        "Ġs",
        "im"
      ],
      [
        "Ġfa",
        "ir"
      ],
      [
        "W",
        "e"
      ],
      [
        "Ġh",
        "us"
      ],
      [
        "Ġb",
        "ur"
      ],
      [
        "it",
        "ing"
      ],
      [
        "m",
        "b"
      ],
      [
        "ĠA",
        "t"
      ],
      [
        "T",
        "ER"
      ],
      [
        "Ġtim",
        "es"
      ],
      [
        "Ġg",
        "re"
      ],
      [
        "Ġsh",
        "ort"
      ],
      [
        "Ġfe",
        "et"
      ],
      [
        "ry",
        "ing"
      ],
      [
        "c",
        "ious"
      ],
      [
        "ĠL",
        "ord"
      ],
      [
        "Ġd",
        "ire"
      ],
      [
        "ĠS",
        "o"
      ],
      [
        "h",
        "o"
      ],
      [
        "anc",
        "es"
      ],
      [
        "ch",
        "ing"
      ],
      [
        "il",
        "ed"
      ],
      [
        "Ġ",
        "ill"
      ],
      [
        "Ġcan",
        "not"
      ],
      [
        "et",
        "s"
      ],
      [
        "u",
        "ally"
      ],
      [
        "Ġwond",
        "er"
      ],
      [
        "b",
        "ed"
      ],
      [
        "Ġcom",
        "ing"
      ],
      [
        "Ġs",
        "ing"
      ],
      [
        "Ġel",
        "se"
      ],
      [
        "a",
        "ct"
      ],
      [
        "ant",
        "s"
      ],
      [
        "Ġunderst",
        "and"
      ],
      [
        "Ġb",
        "u"
      ],
      [
        "Ġ",
        "es"
      ],
      [
        "Ġ",
        "ide"
      ],
      [
        "e",
        "y"
      ],
      [
        "m",
        "y"
      ],
      [
        "Ġof",
        "ten"
      ],
      [
        "d",
        "ay"
      ],
      [
        "ie",
        "ld"
      ],
      [
        "im",
        "es"
      ],
      [
        "Ġre",
        "ally"
      ],
      [
        "en",
        "g"
      ],
      [
        "Ġfe",
        "ar"
      ],
      [
        "ain",
        "s"
      ],
      [
        "Ġob",
        "ser"
      ],
      [
        "Ġpr",
        "om"
      ],
      [
        "Ġs",
        "we"
      ],
      [
        "Ġc",
        "ond"
      ],
      [
        "ment",
        "s"
      ],
      [
        "Ġfa",
        "ct"
      ],
      [
        "Ġdiff",
        "ere"
      ],
      [
        "Ġh",
        "ur"
      ],
      [
        "Ġe",
        "as"
      ],
      [
        "Ġl",
        "ist"
      ],
      [
        "Ġbr",
        "other"
      ],
      [
        "Ġc",
        "irc"
      ],
      [
        "Ġsu",
        "ff"
      ],
      [
        "Ġd",
        "et"
      ],
      [
        "ac",
        "hed"
      ],
      [
        "Ġs",
        "ister"
      ],
      [
        "l",
        "ic"
      ],
      [
        "g",
        "s"
      ],
      [
        "Ġl",
        "arge"
      ],
      [
        "b",
        "and"
      ],
      [
        "Ġd",
        "ro"
      ],
      [
        "Ġhor",
        "se"
      ],
      [
        "ra",
        "ce"
      ],
      [
        "oh",
        "n"
      ],
      [
        "Ġin",
        "v"
      ],
      [
        "Ġfor",
        "m"
      ],
      [
        "ne",
        "y"
      ],
      [
        "o",
        "or"
      ],
      [
        "ĠT",
        "om"
      ],
      [
        "und",
        "red"
      ],
      [
        "Ġwh",
        "y"
      ],
      [
        "Ġbus",
        "iness"
      ],
      [
        "Ġke",
        "pt"
      ],
      [
        "ce",
        "ed"
      ],
      [
        "aught",
        "er"
      ],
      [
        "Ġsp",
        "ir"
      ],
      [
        "n",
        "y"
      ],
      [
        "Ġf",
        "ur"
      ],
      [
        "n",
        "ce"
      ],
      [
        "Ġother",
        "s"
      ],
      [
        "Ġal",
        "one"
      ],
      [
        "Ġstr",
        "ange"
      ],
      [
        "Ġp",
        "ower"
      ],
      [
        "Ġey",
        "e"
      ],
      [
        "Ġgi",
        "ven"
      ],
      [
        "Ġb",
        "it"
      ],
      [
        "Ġab",
        "ove"
      ],
      [
        "Ġreturn",
        "ed"
      ],
      [
        "Ġw",
        "ar"
      ],
      [
        "Ġpret",
        "ty"
      ],
      [
        "Ġfell",
        "ow"
      ],
      [
        "Ġl",
        "ow"
      ],
      [
        "Ġst",
        "art"
      ],
      [
        "n",
        "ight"
      ],
      [
        "Ġli",
        "ve"
      ],
      [
        "ĠP",
        "r"
      ],
      [
        "Ġar",
        "t"
      ],
      [
        "id",
        "es"
      ],
      [
        "Ġh",
        "undred"
      ],
      [
        "HA",
        "P"
      ],
      [
        "HAP",
        "TER"
      ],
      [
        "Ġcl",
        "ose"
      ],
      [
        "Ġwith",
        "in"
      ],
      [
        "ou",
        "l"
      ],
      [
        "ur",
        "ch"
      ],
      [
        "ĠN",
        "o"
      ],
      [
        "Ġkn",
        "own"
      ],
      [
        "Ġqu",
        "iet"
      ],
      [
        "'",
        "re"
      ],
      [
        "Ġs",
        "ign"
      ],
      [
        "Ġp",
        "ri"
      ],
      [
        "if",
        "ul"
      ],
      [
        "Ġhus",
        "band"
      ],
      [
        "Ġo",
        "pp"
      ],
      [
        "Ġp",
        "at"
      ],
      [
        "sh",
        "ip"
      ],
      [
        "Ġf",
        "our"
      ],
      [
        "ag",
        "es"
      ],
      [
        "la",
        "im"
      ],
      [
        "em",
        "pt"
      ],
      [
        "id",
        "er"
      ],
      [
        "ir",
        "d"
      ],
      [
        "Ġf",
        "oot"
      ],
      [
        "ĠF",
        "r"
      ],
      [
        "Ġde",
        "ath"
      ],
      [
        "Ġeven",
        "ing"
      ],
      [
        "Ġaf",
        "f"
      ],
      [
        "ĠB",
        "e"
      ],
      [
        "Ġwhe",
        "ther"
      ],
      [
        "re",
        "ady"
      ],
      [
        "ak",
        "es"
      ],
      [
        "Ġpart",
        "ic"
      ],
      [
        "al",
        "s"
      ],
      [
        "ur",
        "ing"
      ],
      [
        "Ġgr",
        "ound"
      ],
      [
        "is",
        "on"
      ],
      [
        "M",
        "r"
      ],
      [
        "cei",
        "ved"
      ],
      [
        "or",
        "row"
      ],
      [
        "Ġsp",
        "oke"
      ],
      [
        "h",
        "am"
      ],
      [
        "ĠJ",
        "ohn"
      ],
      [
        "Ġm",
        "et"
      ],
      [
        "Ġhe",
        "ld"
      ],
      [
        "id",
        "ed"
      ],
      [
        "Ġs",
        "ight"
      ],
      [
        "i",
        "ence"
      ],
      [
        "ĠEng",
        "lish"
      ],
      [
        "Ġp",
        "ar"
      ],
      [
        "a",
        "pp"
      ],
      [
        "u",
        "ff"
      ],
      [
        "y",
        "ou"
      ],
      [
        "u",
        "g"
      ],
      [
        "Ġb",
        "es"
      ],
      [
        "at",
        "er"
      ],
      [
        "Ġw",
        "ood"
      ],
      [
        "ie",
        "w"
      ],
      [
        "Ġs",
        "on"
      ],
      [
        "Ġm",
        "er"
      ],
      [
        "ĠH",
        "er"
      ],
      [
        "Ġfriend",
        "s"
      ],
      [
        "Ġb",
        "ody"
      ],
      [
        "i",
        "am"
      ],
      [
        "ĠW",
        "ill"
      ],
      [
        "ve",
        "l"
      ],
      [
        "b",
        "y"
      ],
      [
        "ĠH",
        "ow"
      ],
      [
        "Ġme",
        "et"
      ],
      [
        "Ġl",
        "ost"
      ],
      [
        "Ġs",
        "it"
      ],
      [
        "it",
        "ies"
      ],
      [
        "Ġcle",
        "ar"
      ],
      [
        "Ġal",
        "ready"
      ],
      [
        "a",
        "ld"
      ],
      [
        "Ġfor",
        "t"
      ],
      [
        "ent",
        "y"
      ],
      [
        "Ġde",
        "v"
      ],
      [
        "Th",
        "is"
      ],
      [
        "id",
        "d"
      ],
      [
        "ĠK",
        "ing"
      ],
      [
        "s",
        "on"
      ],
      [
        "Ġit",
        "self"
      ],
      [
        "Ġm",
        "aking"
      ],
      [
        "Ġt",
        "ri"
      ],
      [
        "Ġsh",
        "ip"
      ],
      [
        "Ġse",
        "a"
      ],
      [
        "Ġsupp",
        "ose"
      ],
      [
        "Ġbeg",
        "in"
      ],
      [
        "Ġde",
        "p"
      ],
      [
        "Ġth",
        "ou"
      ],
      [
        "Ġocc",
        "as"
      ],
      [
        "Ġm",
        "ist"
      ],
      [
        "The",
        "y"
      ],
      [
        "Ġfeel",
        "ing"
      ],
      [
        "Ġfor",
        "g"
      ],
      [
        "a",
        "pe"
      ],
      [
        "Ġre",
        "al"
      ],
      [
        "air",
        "s"
      ],
      [
        "um",
        "b"
      ],
      [
        "us",
        "h"
      ],
      [
        "Ġab",
        "s"
      ],
      [
        "r",
        "ist"
      ],
      [
        "ove",
        "red"
      ],
      [
        "Ġsur",
        "pr"
      ],
      [
        "i",
        "ent"
      ],
      [
        "Ġb",
        "ig"
      ],
      [
        "k",
        "s"
      ],
      [
        "Ġf",
        "in"
      ],
      [
        "Ġde",
        "al"
      ],
      [
        "Ġf",
        "ine"
      ],
      [
        "Ġb",
        "ook"
      ],
      [
        "a",
        "h"
      ],
      [
        "Ġ",
        "ir"
      ],
      [
        "ill",
        "ed"
      ],
      [
        "Ġc",
        "reat"
      ],
      [
        "itt",
        "ing"
      ],
      [
        "am",
        "b"
      ],
      [
        "ri",
        "age"
      ],
      [
        "u",
        "se"
      ],
      [
        "Ġb",
        "ad"
      ],
      [
        "Ġsle",
        "ep"
      ],
      [
        "Ġevery",
        "thing"
      ],
      [
        "Ġansw",
        "er"
      ],
      [
        "c",
        "hes"
      ],
      [
        "Ġde",
        "f"
      ],
      [
        "Ġm",
        "aster"
      ],
      [
        "Ġw",
        "ild"
      ],
      [
        "ro",
        "om"
      ],
      [
        "Ġwom",
        "en"
      ],
      [
        "Ġwe",
        "ek"
      ],
      [
        "Ġs",
        "ense"
      ],
      [
        "Ġquest",
        "ion"
      ],
      [
        "Ġt",
        "en"
      ],
      [
        "ou",
        "ra"
      ],
      [
        "Ġarm",
        "s"
      ],
      [
        "if",
        "t"
      ],
      [
        "I",
        "n"
      ],
      [
        "Ġbr",
        "ing"
      ],
      [
        "Ġw",
        "all"
      ],
      [
        "ĠD",
        "o"
      ],
      [
        "os",
        "ition"
      ],
      [
        "ou",
        "ble"
      ],
      [
        "ĠI",
        "nd"
      ],
      [
        "le",
        "t"
      ],
      [
        "Ġb",
        "ar"
      ],
      [
        "Ġst",
        "o"
      ],
      [
        "Ġe",
        "ither"
      ],
      [
        "M",
        "y"
      ],
      [
        "e",
        "e"
      ],
      [
        "Ġt",
        "ra"
      ],
      [
        "at",
        "es"
      ],
      [
        "Ġex",
        "pl"
      ],
      [
        "Ġye",
        "ar"
      ],
      [
        "Ġsub",
        "ject"
      ],
      [
        "if",
        "ic"
      ],
      [
        "ag",
        "g"
      ],
      [
        "Ġha",
        "ir"
      ],
      [
        "Ġappe",
        "ar"
      ],
      [
        "Ġlau",
        "gh"
      ],
      [
        "Ġsu",
        "m"
      ],
      [
        "Ġremem",
        "ber"
      ],
      [
        "Ġac",
        "ross"
      ],
      [
        "ing",
        "ly"
      ],
      [
        "Ġt",
        "ou"
      ],
      [
        "Ġc",
        "ol"
      ],
      [
        "ĠM",
        "y"
      ],
      [
        "ĠL",
        "ady"
      ],
      [
        "Ġqu",
        "ick"
      ],
      [
        "Ġbec",
        "ame"
      ],
      [
        "Ġl",
        "aw"
      ],
      [
        "The",
        "n"
      ],
      [
        "Ġm",
        "il"
      ],
      [
        "ĠA",
        "ll"
      ],
      [
        "Ġdis",
        "p"
      ],
      [
        "Ġnat",
        "ure"
      ],
      [
        "Ġre",
        "ady"
      ],
      [
        "Ġc",
        "ast"
      ],
      [
        "Ġsl",
        "ow"
      ],
      [
        "W",
        "hy"
      ],
      [
        "Ġw",
        "on"
      ],
      [
        "um",
        "p"
      ],
      [
        "Ġres",
        "pect"
      ],
      [
        "m",
        "on"
      ],
      [
        "Ġdre",
        "am"
      ],
      [
        "Ġo",
        "ught"
      ],
      [
        "il",
        "ity"
      ],
      [
        "nd",
        "ed"
      ],
      [
        "Ġc",
        "ase"
      ],
      [
        "ut",
        "ter"
      ],
      [
        "Ġar",
        "ound"
      ],
      [
        "Ġim",
        "ag"
      ],
      [
        "g",
        "r"
      ],
      [
        "Ġgl",
        "ad"
      ],
      [
        "f",
        "ter"
      ],
      [
        "is",
        "f"
      ],
      [
        "st",
        "er"
      ],
      [
        "Ġex",
        "cept"
      ],
      [
        "Ġhapp",
        "y"
      ],
      [
        "Ġt",
        "able"
      ],
      [
        "Ġacc",
        "ount"
      ],
      [
        "Ġp",
        "ap"
      ],
      [
        "Ġtr",
        "uth"
      ],
      [
        "Ġexp",
        "ress"
      ],
      [
        "ĠG",
        "r"
      ],
      [
        "id",
        "ent"
      ],
      [
        "Ġdid",
        "n"
      ],
      [
        "Ġd",
        "raw"
      ],
      [
        "un",
        "e"
      ],
      [
        "Ġro",
        "ad"
      ],
      [
        "Ġb",
        "reat"
      ],
      [
        "Ġwor",
        "th"
      ],
      [
        "Ġd",
        "ra"
      ],
      [
        "ious",
        "ly"
      ],
      [
        "Ġst",
        "ep"
      ],
      [
        "Ġwant",
        "ed"
      ],
      [
        "Ġmean",
        "s"
      ],
      [
        "Ġsudden",
        "ly"
      ],
      [
        "le",
        "ct"
      ],
      [
        "Ġaf",
        "fect"
      ],
      [
        "ur",
        "d"
      ],
      [
        "Ġc",
        "old"
      ],
      [
        "c",
        "ri"
      ],
      [
        "Ġapp",
        "ro"
      ],
      [
        "im",
        "e"
      ],
      [
        "Ġwind",
        "ow"
      ],
      [
        "at",
        "s"
      ],
      [
        "d",
        "u"
      ],
      [
        "Ġpartic",
        "ular"
      ],
      [
        "Ġd",
        "in"
      ],
      [
        "ĠT",
        "o"
      ],
      [
        "ous",
        "and"
      ],
      [
        "Ġso",
        "ft"
      ],
      [
        "b",
        "r"
      ],
      [
        "Ġme",
        "re"
      ],
      [
        "Ġp",
        "ain"
      ],
      [
        "Ġs",
        "oul"
      ],
      [
        "Ġse",
        "ver"
      ],
      [
        ")",
        ","
      ],
      [
        "Ġan",
        "g"
      ],
      [
        "ic",
        "es"
      ],
      [
        "Ġob",
        "ject"
      ],
      [
        "Ġr",
        "an"
      ],
      [
        "Ġle",
        "arn"
      ],
      [
        "ard",
        "s"
      ],
      [
        "Ġv",
        "ill"
      ],
      [
        "Ġcom",
        "fort"
      ],
      [
        "Ġappe",
        "ared"
      ],
      [
        "is",
        "ing"
      ],
      [
        "Ġto",
        "wn"
      ],
      [
        "Ġgo",
        "ld"
      ],
      [
        "Ġw",
        "alked"
      ],
      [
        "Ġbeaut",
        "iful"
      ],
      [
        "Ġd",
        "aughter"
      ],
      [
        "ac",
        "ter"
      ],
      [
        "Ġsec",
        "ond"
      ],
      [
        "Ġnat",
        "ur"
      ],
      [
        "ĠM",
        "ary"
      ],
      [
        "Ġposs",
        "ible"
      ],
      [
        "ang",
        "ed"
      ],
      [
        "Ġh",
        "ast"
      ],
      [
        "k",
        "ing"
      ],
      [
        "Ġr",
        "a"
      ],
      [
        "Ġfoll",
        "owed"
      ],
      [
        "Ġp",
        "ol"
      ],
      [
        "Ġsp",
        "r"
      ],
      [
        "o",
        "ver"
      ],
      [
        "Ġs",
        "ix"
      ],
      [
        "I",
        "I"
      ],
      [
        "Ġj",
        "ud"
      ],
      [
        "H",
        "E"
      ],
      [
        "Ġbre",
        "ak"
      ],
      [
        "Ġper",
        "fect"
      ],
      [
        "ad",
        "ed"
      ],
      [
        "Ġth",
        "ousand"
      ],
      [
        "Ġc",
        "orn"
      ],
      [
        "Ġ",
        "ed"
      ],
      [
        "Ġfa",
        "v"
      ],
      [
        "w",
        "h"
      ],
      [
        "in",
        "ation"
      ],
      [
        "Ġst",
        "ay"
      ],
      [
        "Ġd",
        "ri"
      ],
      [
        "Ġoccas",
        "ion"
      ],
      [
        "Ġchar",
        "acter"
      ],
      [
        "Ġse",
        "lf"
      ],
      [
        "Ġear",
        "th"
      ],
      [
        "Ġwh",
        "is"
      ],
      [
        "I",
        "f"
      ],
      [
        "s",
        "ide"
      ],
      [
        "Ġac",
        "qu"
      ],
      [
        "Ġbl",
        "ood"
      ],
      [
        "ur",
        "y"
      ],
      [
        "Ġne",
        "cess"
      ],
      [
        "ra",
        "id"
      ],
      [
        "Ġen",
        "g"
      ],
      [
        "Ġle",
        "a"
      ],
      [
        "ĠHe",
        "re"
      ],
      [
        "H",
        "ow"
      ],
      [
        "e",
        "ad"
      ],
      [
        "Ġide",
        "a"
      ],
      [
        "Ġdel",
        "ight"
      ],
      [
        "Ġsc",
        "ar"
      ],
      [
        "Ġf",
        "ive"
      ],
      [
        "Ġr",
        "ose"
      ],
      [
        "Ġord",
        "er"
      ],
      [
        "Ġsh",
        "ow"
      ],
      [
        "h",
        "il"
      ],
      [
        "Ġl",
        "ord"
      ],
      [
        "Ġsu",
        "s"
      ],
      [
        "Ġyour",
        "self"
      ],
      [
        "C",
        "HAPTER"
      ],
      [
        "it",
        "ude"
      ],
      [
        "anc",
        "y"
      ],
      [
        "Ġthe",
        "e"
      ],
      [
        "Ġcon",
        "c"
      ],
      [
        "Ġinst",
        "ant"
      ],
      [
        "Ġcomm",
        "on"
      ],
      [
        "Ġthink",
        "ing"
      ],
      [
        "Ġp",
        "ast"
      ],
      [
        "Ġcontin",
        "ued"
      ],
      [
        "Ġpro",
        "f"
      ],
      [
        "W",
        "hen"
      ],
      [
        "ĠA",
        "r"
      ],
      [
        "Ġm",
        "ount"
      ],
      [
        "Ġhum",
        "an"
      ],
      [
        "Ġs",
        "ad"
      ],
      [
        "Ġsomet",
        "imes"
      ],
      [
        "ĠW",
        "h"
      ],
      [
        "ll",
        "ed"
      ],
      [
        "Ġdiffere",
        "nt"
      ],
      [
        "l",
        "ight"
      ],
      [
        "o",
        "int"
      ],
      [
        "for",
        "m"
      ],
      [
        "am",
        "es"
      ],
      [
        "Ġqu",
        "ar"
      ],
      [
        "Ġst",
        "ory"
      ],
      [
        "et",
        "y"
      ],
      [
        "Ġfor",
        "ward"
      ],
      [
        "Ġgr",
        "and"
      ],
      [
        "itt",
        "ed"
      ],
      [
        "Ġsec",
        "ret"
      ],
      [
        "Ġsa",
        "f"
      ],
      [
        "e",
        "c"
      ],
      [
        "Ġ",
        "X"
      ],
      [
        "Ġsever",
        "al"
      ],
      [
        "u",
        "gg"
      ],
      [
        "Ġm",
        "us"
      ],
      [
        "Ġeff",
        "ect"
      ],
      [
        "ĠCh",
        "rist"
      ],
      [
        "Ġcons",
        "ider"
      ],
      [
        "Ġt",
        "aking"
      ],
      [
        "Ġn",
        "one"
      ],
      [
        "ĠD",
        "or"
      ],
      [
        "us",
        "hed"
      ],
      [
        "Ġhe",
        "av"
      ],
      [
        "Ġp",
        "ie"
      ],
      [
        "w",
        "hat"
      ],
      [
        "ri",
        "e"
      ],
      [
        "p",
        "an"
      ],
      [
        "Ġc",
        "ut"
      ],
      [
        "Ġwr",
        "ong"
      ],
      [
        "ct",
        "or"
      ],
      [
        "Ġadd",
        "ed"
      ],
      [
        "Ġst",
        "ate"
      ],
      [
        "Ġm",
        "ine"
      ],
      [
        "Ġsat",
        "isf"
      ],
      [
        "Ġth",
        "y"
      ],
      [
        "med",
        "i"
      ],
      [
        "Ġ",
        "Q"
      ],
      [
        "Ġbr",
        "ight"
      ],
      [
        "ĠC",
        "aptain"
      ],
      [
        "w",
        "or"
      ],
      [
        "Ġc",
        "a"
      ],
      [
        "S",
        "o"
      ],
      [
        "w",
        "here"
      ],
      [
        "ĠO",
        "n"
      ],
      [
        "igh",
        "b"
      ],
      [
        "Ġsay",
        "ing"
      ],
      [
        "Ġres",
        "ol"
      ],
      [
        "Ġmon",
        "th"
      ],
      [
        "Ġs",
        "ch"
      ],
      [
        "Ġop",
        "in"
      ],
      [
        "Ġaf",
        "raid"
      ],
      [
        "Ġs",
        "qu"
      ],
      [
        "th",
        "ough"
      ],
      [
        "Ġan",
        "x"
      ],
      [
        "c",
        "o"
      ],
      [
        "Ġf",
        "ig"
      ],
      [
        "en",
        "ing"
      ],
      [
        "Ġa",
        "ble"
      ],
      [
        "Ġle",
        "ad"
      ],
      [
        "y",
        "ond"
      ],
      [
        "ĠW",
        "ell"
      ],
      [
        "Ġg",
        "ard"
      ],
      [
        "Ġs",
        "y"
      ],
      [
        "a",
        "j"
      ],
      [
        "c",
        "ul"
      ],
      [
        "id",
        "ence"
      ],
      [
        "Ġpleas",
        "ure"
      ],
      [
        "Ġp",
        "ay"
      ],
      [
        "Ġin",
        "qu"
      ],
      [
        "Ġc",
        "al"
      ],
      [
        "Ġdo",
        "ing"
      ],
      [
        "l",
        "er"
      ],
      [
        "res",
        "h"
      ],
      [
        "Ġc",
        "or"
      ],
      [
        "Ġhard",
        "ly"
      ],
      [
        "are",
        "nt"
      ],
      [
        "Ġ",
        "ve"
      ],
      [
        "il",
        "ing"
      ],
      [
        "Ġbe",
        "yond"
      ],
      [
        "Ġd",
        "anger"
      ],
      [
        "Ġv",
        "iew"
      ],
      [
        "ĠL",
        "e"
      ],
      [
        "Ġpr",
        "in"
      ],
      [
        "t",
        "on"
      ],
      [
        "Ġvis",
        "it"
      ],
      [
        "ĠR",
        "e"
      ],
      [
        "led",
        "ge"
      ],
      [
        "at",
        "ive"
      ],
      [
        "Ġlong",
        "er"
      ],
      [
        "Ġop",
        "ened"
      ],
      [
        "ond",
        "on"
      ],
      [
        "Ġcar",
        "ried"
      ],
      [
        "ĠN",
        "ow"
      ],
      [
        "Ġhour",
        "s"
      ],
      [
        "ot",
        "e"
      ],
      [
        "Ġfor",
        "th"
      ],
      [
        "Ġent",
        "ered"
      ],
      [
        "Ġm",
        "ad"
      ],
      [
        "ĠE",
        "l"
      ],
      [
        "Ġl",
        "ed"
      ],
      [
        "Ġar",
        "ri"
      ],
      [
        "Ġne",
        "ither"
      ],
      [
        "Ġim",
        "medi"
      ],
      [
        "m",
        "a"
      ],
      [
        "ut",
        "es"
      ],
      [
        "at",
        "ch"
      ],
      [
        "ot",
        "ion"
      ],
      [
        "Ġ",
        "."
      ],
      [
        "ĠL",
        "ondon"
      ],
      [
        "Ġw",
        "arm"
      ],
      [
        "Ġk",
        "ing"
      ],
      [
        "Ġm",
        "outh"
      ],
      [
        "Ġm",
        "ove"
      ],
      [
        "Ġswe",
        "et"
      ],
      [
        "Ġt",
        "ried"
      ],
      [
        "Ġdire",
        "ct"
      ],
      [
        "st",
        "r"
      ],
      [
        "Ġch",
        "urch"
      ],
      [
        "d",
        "d"
      ],
      [
        "in",
        "es"
      ],
      [
        "Ġne",
        "ighb"
      ],
      [
        "ĠS",
        "c"
      ],
      [
        "Ġpre",
        "p"
      ],
      [
        "Ġl",
        "aid"
      ],
      [
        "Ġh",
        "ill"
      ],
      [
        "w",
        "ick"
      ],
      [
        "Ġc",
        "ap"
      ],
      [
        "i",
        "ar"
      ],
      [
        "ĠH",
        "ar"
      ],
      [
        "ĠN",
        "ew"
      ],
      [
        "Ġsil",
        "ence"
      ],
      [
        "al",
        "th"
      ],
      [
        "oo",
        "f"
      ],
      [
        "ir",
        "t"
      ],
      [
        "li",
        "ke"
      ],
      [
        "Ġcirc",
        "um"
      ],
      [
        "N",
        "ow"
      ],
      [
        "on",
        "y"
      ],
      [
        "Ġd",
        "ut"
      ],
      [
        "A",
        "s"
      ],
      [
        "ot",
        "s"
      ],
      [
        "Ġf",
        "ree"
      ],
      [
        "pp",
        "ing"
      ],
      [
        "Ġre",
        "qu"
      ],
      [
        "Ġbe",
        "ar"
      ],
      [
        "Ġc",
        "ross"
      ],
      [
        "Ġbec",
        "ome"
      ],
      [
        "Ġh",
        "ung"
      ],
      [
        "Ġm",
        "od"
      ],
      [
        "ren",
        "ch"
      ],
      [
        "Ġdiff",
        "ic"
      ],
      [
        "im",
        "ent"
      ],
      [
        "ĠEng",
        "land"
      ],
      [
        "Ġl",
        "ate"
      ],
      [
        "Ġe",
        "qu"
      ],
      [
        "Ġme",
        "ant"
      ],
      [
        "Ġli",
        "ved"
      ],
      [
        "o",
        "e"
      ],
      [
        "ar",
        "p"
      ],
      [
        "la",
        "w"
      ],
      [
        "Ġtr",
        "ust"
      ],
      [
        "Ġspir",
        "it"
      ],
      [
        "Ġ",
        "est"
      ],
      [
        "Ġw",
        "is"
      ],
      [
        "Ġm",
        "ag"
      ],
      [
        "Ġf",
        "ast"
      ],
      [
        "Ġsm",
        "ile"
      ],
      [
        "re",
        "ad"
      ],
      [
        "Ġch",
        "ange"
      ],
      [
        "as",
        "ed"
      ],
      [
        "Ġ",
        "1"
      ],
      [
        "Ġf",
        "ool"
      ],
      [
        "Ġt",
        "em"
      ],
      [
        "ru",
        "pt"
      ],
      [
        "Ġst",
        "ra"
      ],
      [
        "Ġus",
        "ual"
      ],
      [
        "ess",
        "ion"
      ],
      [
        "z",
        "e"
      ],
      [
        "Ġes",
        "c"
      ],
      [
        "r",
        "or"
      ],
      [
        "anc",
        "ed"
      ],
      [
        "Ġtre",
        "es"
      ],
      [
        "Ġro",
        "ck"
      ],
      [
        "Ġth",
        "us"
      ],
      [
        "ĠN",
        "or"
      ],
      [
        "Ġb",
        "ott"
      ],
      [
        "iz",
        "ed"
      ],
      [
        "Ġcomm",
        "and"
      ],
      [
        "Ġl",
        "eng"
      ],
      [
        "ick",
        "ed"
      ],
      [
        "N",
        "ot"
      ],
      [
        "Ġf",
        "ight"
      ],
      [
        "Ġhapp",
        "ened"
      ],
      [
        "d",
        "e"
      ],
      [
        "Ġgener",
        "al"
      ],
      [
        "Ġpl",
        "ain"
      ],
      [
        "Ġunc",
        "le"
      ],
      [
        "er",
        "m"
      ],
      [
        "Ġcircum",
        "st"
      ],
      [
        "Ġto",
        "ne"
      ],
      [
        "Ġe",
        "le"
      ],
      [
        "Ġthought",
        "s"
      ],
      [
        "Ġreg",
        "ard"
      ],
      [
        "Ġst",
        "ri"
      ],
      [
        "Ġtr",
        "ouble"
      ],
      [
        "Ġseem",
        "s"
      ],
      [
        "Ġg",
        "rave"
      ],
      [
        "Ġlad",
        "ies"
      ],
      [
        "Ġstr",
        "uck"
      ],
      [
        "Ġr",
        "iver"
      ],
      [
        "Ġsp",
        "o"
      ],
      [
        "Ġscar",
        "ce"
      ],
      [
        "ag",
        "ed"
      ],
      [
        "Ġknow",
        "s"
      ],
      [
        "ĠO",
        "ne"
      ],
      [
        "Ġch",
        "ance"
      ],
      [
        "ag",
        "er"
      ],
      [
        "Ġpri",
        "v"
      ],
      [
        "Ġmin",
        "utes"
      ],
      [
        "Ġb",
        "ene"
      ],
      [
        "Ġpur",
        "p"
      ],
      [
        "Ġfr",
        "ont"
      ],
      [
        "o",
        "es"
      ],
      [
        "ĠA",
        "d"
      ],
      [
        "if",
        "ied"
      ],
      [
        "laim",
        "ed"
      ],
      [
        "et",
        "ty"
      ]
    ]
  }
}